{"[PAD]": 0, "[CLS]": 1, "[SEP]": 2, "[UNK]": 3, "<0x00>": 4, "<0x01>": 5, "<0x02>": 6, "<0x03>": 7, "<0x04>": 8, "<0x05>": 9, "<0x06>": 10, "<0x07>": 11, "<0x08>": 12, "<0x09>": 13, "<0x0A>": 14, "<0x0B>": 15, "<0x0C>": 16, "<0x0D>": 17, "<0x0E>": 18, "<0x0F>": 19, "<0x10>": 20, "<0x11>": 21, "<0x12>": 22, "<0x13>": 23, "<0x14>": 24, "<0x15>": 25, "<0x16>": 26, "<0x17>": 27, "<0x18>": 28, "<0x19>": 29, "<0x1A>": 30, "<0x1B>": 31, "<0x1C>": 32, "<0x1D>": 33, "<0x1E>": 34, "<0x1F>": 35, "<0x20>": 36, "<0x21>": 37, "<0x22>": 38, "<0x23>": 39, "<0x24>": 40, "<0x25>": 41, "<0x26>": 42, "<0x27>": 43, "<0x28>": 44, "<0x29>": 45, "<0x2A>": 46, "<0x2B>": 47, "<0x2C>": 48, "<0x2D>": 49, "<0x2E>": 50, "<0x2F>": 51, "<0x30>": 52, "<0x31>": 53, "<0x32>": 54, "<0x33>": 55, "<0x34>": 56, "<0x35>": 57, "<0x36>": 58, "<0x37>": 59, "<0x38>": 60, "<0x39>": 61, "<0x3A>": 62, "<0x3B>": 63, "<0x3C>": 64, "<0x3D>": 65, "<0x3E>": 66, "<0x3F>": 67, "<0x40>": 68, "<0x41>": 69, "<0x42>": 70, "<0x43>": 71, "<0x44>": 72, "<0x45>": 73, "<0x46>": 74, "<0x47>": 75, "<0x48>": 76, "<0x49>": 77, "<0x4A>": 78, "<0x4B>": 79, "<0x4C>": 80, "<0x4D>": 81, "<0x4E>": 82, "<0x4F>": 83, "<0x50>": 84, "<0x51>": 85, "<0x52>": 86, "<0x53>": 87, "<0x54>": 88, "<0x55>": 89, "<0x56>": 90, "<0x57>": 91, "<0x58>": 92, "<0x59>": 93, "<0x5A>": 94, "<0x5B>": 95, "<0x5C>": 96, "<0x5D>": 97, "<0x5E>": 98, "<0x5F>": 99, "<0x60>": 100, "<0x61>": 101, "<0x62>": 102, "<0x63>": 103, "<0x64>": 104, "<0x65>": 105, "<0x66>": 106, "<0x67>": 107, "<0x68>": 108, "<0x69>": 109, "<0x6A>": 110, "<0x6B>": 111, "<0x6C>": 112, "<0x6D>": 113, "<0x6E>": 114, "<0x6F>": 115, "<0x70>": 116, "<0x71>": 117, "<0x72>": 118, "<0x73>": 119, "<0x74>": 120, "<0x75>": 121, "<0x76>": 122, "<0x77>": 123, "<0x78>": 124, "<0x79>": 125, "<0x7A>": 126, "<0x7B>": 127, "<0x7C>": 128, "<0x7D>": 129, "<0x7E>": 130, "<0x7F>": 131, "<0x80>": 132, "<0x81>": 133, "<0x82>": 134, "<0x83>": 135, "<0x84>": 136, "<0x85>": 137, "<0x86>": 138, "<0x87>": 139, "<0x88>": 140, "<0x89>": 141, "<0x8A>": 142, "<0x8B>": 143, "<0x8C>": 144, "<0x8D>": 145, "<0x8E>": 146, "<0x8F>": 147, "<0x90>": 148, "<0x91>": 149, "<0x92>": 150, "<0x93>": 151, "<0x94>": 152, "<0x95>": 153, "<0x96>": 154, "<0x97>": 155, "<0x98>": 156, "<0x99>": 157, "<0x9A>": 158, "<0x9B>": 159, "<0x9C>": 160, "<0x9D>": 161, "<0x9E>": 162, "<0x9F>": 163, "<0xA0>": 164, "<0xA1>": 165, "<0xA2>": 166, "<0xA3>": 167, "<0xA4>": 168, "<0xA5>": 169, "<0xA6>": 170, "<0xA7>": 171, "<0xA8>": 172, "<0xA9>": 173, "<0xAA>": 174, "<0xAB>": 175, "<0xAC>": 176, "<0xAD>": 177, "<0xAE>": 178, "<0xAF>": 179, "<0xB0>": 180, "<0xB1>": 181, "<0xB2>": 182, "<0xB3>": 183, "<0xB4>": 184, "<0xB5>": 185, "<0xB6>": 186, "<0xB7>": 187, "<0xB8>": 188, "<0xB9>": 189, "<0xBA>": 190, "<0xBB>": 191, "<0xBC>": 192, "<0xBD>": 193, "<0xBE>": 194, "<0xBF>": 195, "<0xC0>": 196, "<0xC1>": 197, "<0xC2>": 198, "<0xC3>": 199, "<0xC4>": 200, "<0xC5>": 201, "<0xC6>": 202, "<0xC7>": 203, "<0xC8>": 204, "<0xC9>": 205, "<0xCA>": 206, "<0xCB>": 207, "<0xCC>": 208, "<0xCD>": 209, "<0xCE>": 210, "<0xCF>": 211, "<0xD0>": 212, "<0xD1>": 213, "<0xD2>": 214, "<0xD3>": 215, "<0xD4>": 216, "<0xD5>": 217, "<0xD6>": 218, "<0xD7>": 219, "<0xD8>": 220, "<0xD9>": 221, "<0xDA>": 222, "<0xDB>": 223, "<0xDC>": 224, "<0xDD>": 225, "<0xDE>": 226, "<0xDF>": 227, "<0xE0>": 228, "<0xE1>": 229, "<0xE2>": 230, "<0xE3>": 231, "<0xE4>": 232, "<0xE5>": 233, "<0xE6>": 234, "<0xE7>": 235, "<0xE8>": 236, "<0xE9>": 237, "<0xEA>": 238, "<0xEB>": 239, "<0xEC>": 240, "<0xED>": 241, "<0xEE>": 242, "<0xEF>": 243, "<0xF0>": 244, "<0xF1>": 245, "<0xF2>": 246, "<0xF3>": 247, "<0xF4>": 248, "<0xF5>": 249, "<0xF6>": 250, "<0xF7>": 251, "<0xF8>": 252, "<0xF9>": 253, "<0xFA>": 254, "<0xFB>": 255, "<0xFC>": 256, "<0xFD>": 257, "<0xFE>": 258, "<0xFF>": 259, ".": 260, ",": 261, "\u2581the": 262, "\u2581and": 263, "\u2581to": 264, "\u2581of": 265, "\u2581a": 266, "\u2581in": 267, "s": 268, "\u2581is": 269, "\u2581for": 270, "-": 271, "\u2581that": 272, "\u2581I": 273, "\u2581you": 274, "\u2581with": 275, "\u2019": 276, "\u2581on": 277, "\u2581it": 278, "\u2581The": 279, "'": 280, "\u2581are": 281, "\u2581be": 282, "\u2581as": 283, "\u2581was": 284, ")": 285, "\u2581have": 286, "\u2581(": 287, "\u2581at": 288, "\u2581or": 289, "\u2581your": 290, "\u2581this": 291, "\u2581from": 292, "\u2581by": 293, ":": 294, "\u2581can": 295, "\u2581will": 296, "t": 297, "\u2581not": 298, "\u2581an": 299, "!": 300, "\u2581we": 301, "?": 302, "\u2581has": 303, "\u2581but": 304, "\u2581all": 305, "\u2581they": 306, "\u2581\"": 307, "\u2581their": 308, "\"": 309, "\u2581more": 310, "\u2581one": 311, "\u2581my": 312, "\u2581he": 313, "\u2581about": 314, "\u2581his": 315, "\u2581our": 316, "\u2581\u201c": 317, "\u201d": 318, "\u2581which": 319, "/": 320, "\u2581out": 321, "\u2581up": 322, "\u2581.": 323, "\u2581so": 324, "\u2581It": 325, "\u2581time": 326, "\u2581also": 327, "\u2581who": 328, "\u2581This": 329, "\u2581had": 330, "\u2581been": 331, "\u2581were": 332, "\u2581do": 333, "\u2581like": 334, "\u2581when": 335, "\u2581A": 336, "\u2581if": 337, "\u2581would": 338, "\u2581what": 339, "\u2581other": 340, "\u2581-": 341, "\u2581her": 342, "\u2581there": 343, "\u2581In": 344, "\u2581We": 345, ";": 346, "\u2581some": 347, "\u2581just": 348, "\u2581them": 349, "\u2581get": 350, "\u2581me": 351, "\u2581into": 352, "\u2581new": 353, "\u2581than": 354, "\u2581people": 355, "\u2581any": 356, "\u2581said": 357, "m": 358, "\u2581its": 359, "\u2581over": 360, "\u2581how": 361, "\u2581first": 362, "\u2581no": 363, "\u2581only": 364, "\u2581make": 365, "\u2581,": 366, "\u2581You": 367, "re": 368, "\u2581If": 369, "\u2581most": 370, "\u2581well": 371, "\u2581may": 372, "\u2581she": 373, "\u2581work": 374, "\u2581two": 375, "\u25811": 376, "\u2581\u2013": 377, "\u2581these": 378, "\u2581very": 379, "\u2581use": 380, "\u2581us": 381, "\u2581'": 382, "\u2581He": 383, "\u2581way": 384, "\u2581after": 385, "\u2581many": 386, "\u2581could": 387, "\u2581years": 388, "\u2581need": 389, "\u2581through": 390, "\u2581know": 391, "\u25812": 392, "\u2581then": 393, "\u2581now": 394, "\u2581year": 395, "\u2581back": 396, "\u2581good": 397, "\u2581see": 398, "\u2581where": 399, "\u2581much": 400, "\u2581because": 401, "\u2581even": 402, "\u2581should": 403, "\u25813": 404, "\u2581such": 405, "\u2581day": 406, "d": 407, "\u2581help": 408, "\u2581want": 409, "\u2581best": 410, "\u2581being": 411, "\u2581made": 412, "\u2581take": 413, "\u2581And": 414, "ve": 415, "\u2581before": 416, "\u2581him": 417, "\u2581don": 418, "\u2581$": 419, "\u2581But": 420, "\u2581those": 421, "\u2581here": 422, "\u2581right": 423, "\u2581go": 424, "\u2581home": 425, "\u2581great": 426, "\u2581used": 427, "\u2581think": 428, "\u2581&": 429, "S": 430, "\u2581really": 431, "\u2581life": 432, "\u2581find": 433, "\u2581For": 434, "1": 435, "ll": 436, "\u2581last": 437, "\u2581while": 438, "\u2581information": 439, "%": 440, "\u2581around": 441, "\u2581off": 442, "\u2581There": 443, "\u2581down": 444, "2": 445, "\u2581going": 446, "\u2581world": 447, "\u2581each": 448, "\u2581still": 449, "\u2581They": 450, "\u2581own": 451, "a": 452, "\u25814": 453, "\u2581same": 454, "\u2581long": 455, "\u25815": 456, "\u2581between": 457, "\u2581What": 458, "\u2581high": 459, "\u2581business": 460, "\u2581too": 461, "\u2581both": 462, "\u2581As": 463, "\u2581did": 464, "\u2581part": 465, "\u258110": 466, "\u2581different": 467, "\u2581look": 468, "\u2581every": 469, "\u2581place": 470, "\u2581So": 471, "\u2581love": 472, "e": 473, "th": 474, "\u2581three": 475, "I": 476, "\u2581few": 477, "\u2581using": 478, "\u2581things": 479, "\u2581little": 480, "\u2581am": 481, "\u2581during": 482, "\u2581company": 483, "\u2581free": 484, "\u2581New": 485, "\u2581When": 486, "\u2581set": 487, "\u2581come": 488, "\u2581always": 489, "\u2581does": 490, "\u2581something": 491, "\u2581system": 492, "\u2581better": 493, "\u2581under": 494, "\u2581family": 495, "\u2581number": 496, "\u2581without": 497, "\u2581next": 498, "\u2581available": 499, "\u2581including": 500, "\u2581another": 501, "\u2581To": 502, "\u2581She": 503, "\u2581say": 504, "\u2581found": 505, "\u2581service": 506, "\u2581": 507, "3": 508, "\u2581lot": 509, "ing": 510, "\u2581team": 511, "\u2581That": 512, "\u2581end": 513, "\u2581data": 514, "\u2581since": 515, "\u2581must": 516, "\u2581experience": 517, "\u2581never": 518, "\u2581got": 519, "\u2581might": 520, "\u2581sure": 521, "\u2581game": 522, "\u2581support": 523, "5": 524, "\u25816": 525, "\u2581able": 526, "\u2581give": 527, "000": 528, "\u2581water": 529, "\u2581top": 530, "\u2581provide": 531, "\u2581against": 532, "\u2581\u2014": 533, "\u2581\u2018": 534, "\u2581online": 535, "\u2581small": 536, "\u2581area": 537, "\u2581days": 538, "\u2581important": 539, "\u2581full": 540, "\u2581again": 541, "\u2581week": 542, "\u2581U": 543, "\u2581services": 544, "\u2581All": 545, "\u2581within": 546, "in": 547, "\u2581keep": 548, "com": 549, "\u2581book": 550, "\u2581feel": 551, "\u2581put": 552, "\u2581show": 553, "4": 554, "(": 555, "\u2581order": 556, "\u2581away": 557, "A": 558, "\u2581With": 559, "\u2581working": 560, "\u2581today": 561, "\u2581looking": 562, "\u2581school": 563, "\u2581start": 564, "\u2581state": 565, "\u2581site": 566, "\u2581second": 567, "\u2581process": 568, "ed": 569, "\u2581making": 570, "\u2581case": 571, "\u2581children": 572, "\u2581My": 573, "\u25817": 574, "\u2581change": 575, "\u2581thing": 576, "\u2581How": 577, "\u25818": 578, "\u2581why": 579, "\u2581money": 580, "\u2581Our": 581, "\u2581point": 582, "\u2581until": 583, "\u2581i": 584, "\u2581No": 585, "\u2581course": 586, "\u2581design": 587, "\u2581local": 588, "\u2581On": 589, "\u2581didn": 590, "\u2581having": 591, "]": 592, "\u2581One": 593, "\u2581market": 594, "\u2581left": 595, "\u2581group": 596, "\u2581old": 597, "\u2581students": 598, "\u2581care": 599, "\u2581post": 600, "\u2581name": 601, "\u258120": 602, "\u2581together": 603, "\u2581person": 604, "\u2581per": 605, "\u2581These": 606, "\u2581quality": 607, "y": 608, "\u2581real": 609, "\u2581big": 610, "\u2581often": 611, "\u2581play": 612, "\u2581public": 613, "\u2581large": 614, "\u2581open": 615, "_": 616, "\u2581power": 617, "\u2581enough": 618, "\u2581done": 619, "\u2581At": 620, "\u258112": 621, "\u2581health": 622, "\u2581read": 623, "\u2581website": 624, "\u2581less": 625, "\u2581side": 626, "\u2581God": 627, "\u2581possible": 628, "\u2581room": 629, "\u2581offer": 630, "\u2581times": 631, "\u2581ever": 632, "\u2581products": 633, "\u2581needs": 634, "The": 635, "\u2581based": 636, "\u2581already": 637, "\u2581become": 638, "\u2581easy": 639, "\u2581car": 640, "\u2581along": 641, "\u2581man": 642, "\u2581After": 643, "\u2014": 644, "\u2581food": 645, "\u2581getting": 646, "\u2581[": 647, "\u2581community": 648, "er": 649, "\u2581called": 650, "\u2581though": 651, "\u2581says": 652, "\u2581doing": 653, "\u2581four": 654, "\u2581program": 655, "\u2581several": 656, "\u2581hard": 657, "\u2581country": 658, "\u2581far": 659, "\u2581call": 660, "\u2581night": 661, "\u2581S": 662, "\u2581project": 663, "\u2581page": 664, "\u2581body": 665, "\u2581means": 666, "i": 667, "\u2581least": 668, "\u2581house": 669, "\u2581came": 670, "\u2581government": 671, "\u2581However": 672, "n": 673, "\u2581level": 674, "\u2581actually": 675, "\u2581create": 676, "\u2581research": 677, "\u2581let": 678, "\u2581across": 679, "\u2581include": 680, "\u2581took": 681, "\u2581makes": 682, "\u2581line": 683, "\u2581run": 684, "\u2581live": 685, "\u2581list": 686, "\u2581try": 687, "\u2581job": 688, "\u2581University": 689, "\u2581others": 690, "D": 691, "\u25812018": 692, "0": 693, "\u2581women": 694, "\u2581past": 695, "\u2581started": 696, "\u2581story": 697, "or": 698, "\u2581comes": 699, "\u2581went": 700, "ly": 701, "\u2581doesn": 702, "\u258130": 703, "\u2581once": 704, "\u2581million": 705, "\u258115": 706, "\u2581city": 707, "\u2581thought": 708, "\u2581season": 709, "\u2581price": 710, "C": 711, "\u25819": 712, "\u2581fact": 713, "\u2581product": 714, "and": 715, "\u2581C": 716, "\u2581bit": 717, "\u2581de": 718, "\u2581control": 719, "\u2581event": 720, "\u2581hand": 721, "\u2581won": 722, "\u2581future": 723, "the": 724, "to": 725, "\u2581form": 726, "\u2581development": 727, "\u2581social": 728, "\u2581yet": 729, "\u2581Your": 730, "\u2581light": 731, "\u2581told": 732, "\u2581American": 733, "\u2581later": 734, "\u2581problem": 735, "\u2581B": 736, "\u2581early": 737, "\u2581example": 738, "\u2581access": 739, "\u2581months": 740, "\u2581plan": 741, "\u2581members": 742, "\u2581hours": 743, "\u2581given": 744, "\u2581non": 745, "\u2581download": 746, "\u2581kind": 747, "\u2581below": 748, "\u2581M": 749, "\u2581video": 750, "\u2581cost": 751, "\u2581share": 752, "\u2581personal": 753, "\u2581space": 754, "\u2581music": 755, "\u2581known": 756, "\u2581seen": 757, "\u2581everything": 758, "\u2581low": 759, "\u2581someone": 760, "\u2581head": 761, "\u258111": 762, "\u2581current": 763, "\u2581above": 764, "6": 765, "\u2581companies": 766, "\u25810": 767, "\u2581minutes": 768, "\u2581industry": 769, "\u2581believe": 770, "\u2581Do": 771, "\u2581value": 772, "\u2581five": 773, "\u2581friends": 774, "\u2581due": 775, "\u2581following": 776, "\u2581single": 777, "\u2581range": 778, "\u2581special": 779, "\u2581United": 780, "\u2581idea": 781, "\u2581short": 782, "\u2581whole": 783, "\u2581anything": 784, "\u2581fun": 785, "\u2581whether": 786, "\u2581taking": 787, "\u2581month": 788, "\u2581contact": 789, "\u2581Now": 790, "\u2581mind": 791, "\u2581building": 792, "\u2581results": 793, "\u2581pay": 794, "o": 795, "\u2581understand": 796, "\u2581study": 797, "\u25812017": 798, "\u2581learn": 799, "\u2581add": 800, "\u2581perfect": 801, "\u2581D": 802, "\u2581100": 803, "8": 804, "\u2581While": 805, "\u2581media": 806, "\u2581check": 807, "\u2581issues": 808, "\u2581buy": 809, "\u2581type": 810, "\u2581please": 811, "\u2581face": 812, "\u2581series": 813, "\u2581either": 814, "\u2581report": 815, "\u2581An": 816, "\u2581quite": 817, "\u2581law": 818, "7": 819, "\u2581history": 820, "\u2581living": 821, "\u2581content": 822, "\u2581almost": 823, "\u2581ago": 824, "\u2581move": 825, "\u2581offers": 826, "\u2581half": 827, "\u2581close": 828, "\u2581E": 829, "\u2581features": 830, "\u2581front": 831, "\u2581office": 832, "\u2581trying": 833, "r": 834, "\u2581technology": 835, "\u2581visit": 836, "\u2581everyone": 837, "\u2581training": 838, "\u2581further": 839, "\u2581/": 840, "\u2581questions": 841, "\u2581men": 842, "\u2581energy": 843, "\u2581City": 844, "\u2581p": 845, "\u2581US": 846, "\u2581various": 847, "\u2581tell": 848, "\u2581wanted": 849, "\u2581complete": 850, "\u2581J": 851, "\u2581major": 852, "\u2581child": 853, "\u2581taken": 854, "\u2581His": 855, "\u2581young": 856, "\u2581human": 857, "\u2581needed": 858, "\u2581added": 859, "\u2581simple": 860, "\u2581bring": 861, "\u2581games": 862, "\u2581Please": 863, "\u2581percent": 864, "\u2581e": 865, "\u2581view": 866, "\u2581State": 867, "\u2581result": 868, "\u2581especially": 869, "\u2581property": 870, "\u2581email": 871, "\u2581main": 872, "\u2581probably": 873, "\u2581beautiful": 874, "\u2581hope": 875, "\u2581performance": 876, "\u2581:": 877, "\u2581likely": 878, "\u2581Some": 879, "\u2581among": 880, "\u2581white": 881, "\u2581coming": 882, "\u2581third": 883, "\u2581size": 884, "\u2581works": 885, "\u2581required": 886, "\u2581customers": 887, "\u2581provides": 888, "\u2581issue": 889, "\u2581pretty": 890, "\u2581simply": 891, "\u25812016": 892, "\u2581areas": 893, "10": 894, "\u2581management": 895, "\u2581key": 896, "\u2581T": 897, "\u2581writing": 898, "\u2581rather": 899, "\u2581question": 900, "\u2581however": 901, "\u2581National": 902, "\u2581May": 903, "\u2581professional": 904, "\u2581age": 905, "\u2581amount": 906, "\u2581deal": 907, "\u2581addition": 908, "\u2581R": 909, "\u2581present": 910, "\u2581points": 911, "\u2581matter": 912, "\u2581clear": 913, "\u2581account": 914, "\u2581party": 915, "\u2581P": 916, "\u2581lead": 917, "\u2581John": 918, "\u2581reason": 919, "\u2581York": 920, "\u2581asked": 921, "\u258116": 922, "\u2581South": 923, "\u2581heart": 924, "\u2581air": 925, "\u2581period": 926, "\u2581By": 927, "\u2581isn": 928, "\u2581enjoy": 929, "\u2581turn": 930, "\u2581behind": 931, "\u2581phone": 932, "\u2581film": 933, "\u2581self": 934, "on": 935, "\u258114": 936, "\u2581black": 937, "\u2581class": 938, "\u2581forward": 939, "\u258118": 940, "\u2581near": 941, "\u2581nothing": 942, "year": 943, "\u2581Here": 944, "\u2581Mr": 945, "\u2581field": 946, "\u2581problems": 947, "g": 948, "\u2581provided": 949, "\u2581soon": 950, "\u2581Not": 951, "\u2581mean": 952, "\u2581#": 953, "\u2581outside": 954, "\u2581yourself": 955, "\u2581blog": 956, "\u2581meet": 957, "\u2013": 958, "\u2581continue": 959, "\u258150": 960, "\u2581re": 961, "00": 962, "\u2581insurance": 963, "\u2581World": 964, "\u2581etc": 965, "\u2581bad": 966, "\u2581web": 967, "\u2581held": 968, "\u258124": 969, "\u2581according": 970, "\u2581security": 971, "\u2581designed": 972, "\u2581art": 973, "&": 974, "\u2581North": 975, "\u2581events": 976, "\u258125": 977, "\u2581kids": 978, "\u2581staff": 979, "\u2581true": 980, "\u2581interest": 981, "x": 982, "B": 983, "\u2581news": 984, "\u2581role": 985, "\u2581strong": 986, "\u2581St": 987, "\u2581unique": 988, "\u258113": 989, "\u2581address": 990, "\u2581certain": 991, "\u2581stay": 992, "\u2581increase": 993, "\u2581created": 994, "\u2581else": 995, "\u2581specific": 996, "\u2581running": 997, "\u2581couple": 998, "\u2581financial": 999, "\u2581ideas": 1000, "\u2581stop": 1001, "\u2581Trump": 1002, "\u2581choose": 1003, "\u2581search": 1004, "\u2581happy": 1005, "\u2581includes": 1006, "\u2581From": 1007, "\u2581natural": 1008, "\u2581style": 1009, "\u2581test": 1010, "\u2581Dr": 1011, "\u2581anyone": 1012, "\u2581inside": 1013, "\u2581March": 1014, "\u2581seems": 1015, "\u2581action": 1016, "\u2581States": 1017, "\u2581received": 1018, "\u2581common": 1019, "\u2581original": 1020, "\u2581leave": 1021, "\u2581position": 1022, "\u2581words": 1023, "\u2581ask": 1024, "up": 1025, "\u2581higher": 1026, "\u2581options": 1027, "\u2581changes": 1028, "\u2581ways": 1029, "\u2581article": 1030, "\u2581recent": 1031, "\u2581longer": 1032, "\u2581weeks": 1033, "\u2581member": 1034, "\u2581treatment": 1035, "\u2581software": 1036, "\u2581cannot": 1037, "\u2581version": 1038, "\u2581rate": 1039, "\u2581model": 1040, "\u2581ready": 1041, "\u2581general": 1042, "\u2581date": 1043, "\u2581build": 1044, "\u2581details": 1045, "\u2581takes": 1046, "\u2581total": 1047, "\u2581usually": 1048, "\u2581currently": 1049, "\u2581systems": 1050, "\u2581risk": 1051, "\u2581allow": 1052, "\u2581saw": 1053, "\u25812015": 1054, "\u2581application": 1055, "\u2581individual": 1056, "\u2581shows": 1057, "\u2581similar": 1058, "\u2581School": 1059, "\u2581Then": 1060, "\u2581final": 1061, "\u2581opportunity": 1062, "\u2581Just": 1063, "\u2581upon": 1064, "\u2581ensure": 1065, "\u2581morning": 1066, "\u2581return": 1067, "\u2581potential": 1068, "\u2581receive": 1069, "\u2581particular": 1070, "\u2581Of": 1071, "\u2581talk": 1072, "\u2581six": 1073, "\u2581growth": 1074, "\u2581throughout": 1075, "30": 1076, "\u2581reading": 1077, "\u2581review": 1078, "\u2581win": 1079, "\u2581oil": 1080, "\u2581card": 1081, "\u2581education": 1082, "\u2581President": 1083, "\u2581!": 1084, "\u2581nice": 1085, "We": 1086, "\u2581focus": 1087, "9": 1088, "\u2581paper": 1089, "\u2581rest": 1090, "\u2581County": 1091, "\u2581file": 1092, "\u2581L": 1093, "\u2581private": 1094, "\u2581step": 1095, "\u2581via": 1096, "\u2581House": 1097, "\u2581G": 1098, "\u2581customer": 1099, "\u2581sense": 1100, "\u2581learning": 1101, "\u2581?": 1102, "\u2581worked": 1103, "\u2581recently": 1104, "\u2581practice": 1105, "\u2581store": 1106, "\u2581F": 1107, "\u2581table": 1108, "\u2581late": 1109, "es": 1110, "\u2581follow": 1111, "\u25812019": 1112, "\u2581myself": 1113, "\u2581additional": 1114, "\u2581image": 1115, "\u2581books": 1116, "\u2581production": 1117, "\u2581knowledge": 1118, "\u2581built": 1119, "\u2581latest": 1120, "\u2581America": 1121, "\u2581meeting": 1122, "\u2581popular": 1123, "\u2581*": 1124, "\u2581lost": 1125, "\u2581quickly": 1126, "\u2581looks": 1127, "\u2581entire": 1128, "\u2581decision": 1129, "\u2581O": 1130, "\u2581lives": 1131, "\u2581policy": 1132, "\u2581users": 1133, "\u2581cover": 1134, "M": 1135, "\u2581items": 1136, "\u2581located": 1137, "\u2581cause": 1138, "\u2581hit": 1139, "\u2581included": 1140, "\u2581choice": 1141, "\u2581death": 1142, "\u2581user": 1143, "\u2581related": 1144, "\u2581instead": 1145, "\u2581material": 1146, "\u2581themselves": 1147, "\u2581K": 1148, "\u2581N": 1149, "\u2581wasn": 1150, "\u25812014": 1151, "\u2581former": 1152, "\u2581players": 1153, "\u258117": 1154, "\u2581international": 1155, "\u2581friend": 1156, "\u2581activities": 1157, "\u2581skin": 1158, "\u2581medical": 1159, "\u2581sales": 1160, "\u2581itself": 1161, "\u2581record": 1162, "\u2581color": 1163, "\u2581police": 1164, "k": 1165, "\u2581easily": 1166, "\u2581Why": 1167, "\u2581drive": 1168, "\u2581terms": 1169, "\u2581moment": 1170, "\u2581patients": 1171, "\u2581June": 1172, "based": 1173, "\u2581cut": 1174, "\u2581giving": 1175, "\u2581Center": 1176, "\u2581chance": 1177, "\u2581Friday": 1178, "\u2581difficult": 1179, "\u2581word": 1180, "\u2581became": 1181, "\u2581wide": 1182, "\u2581write": 1183, "\u2581Also": 1184, "\u2581playing": 1185, "+": 1186, "\u2581clients": 1187, "\u2581skills": 1188, "\u2581tax": 1189, "\u2581involved": 1190, "\u2581network": 1191, "\u2581environment": 1192, "T": 1193, "\u2581Can": 1194, "\u2581Thanks": 1195, "\u2581began": 1196, "\u2581code": 1197, "\u2581political": 1198, "\u2581felt": 1199, "\u2581national": 1200, "\u2581amazing": 1201, "\u2581summer": 1202, "\u2581parents": 1203, "\u2581x": 1204, "\u2581projects": 1205, "\u2581career": 1206, "c": 1207, "\u2581China": 1208, "\u2581option": 1209, "\u2581average": 1210, "\u2581ability": 1211, "\u2581road": 1212, "\u2581save": 1213, "\u2581computer": 1214, "\u2581lower": 1215, "\u2581decided": 1216, "\u2581April": 1217, "\u2581approach": 1218, "\u2581door": 1219, "\u2581woman": 1220, "\u2581remember": 1221, "\u2581UK": 1222, "\u2581written": 1223, "\u2581brand": 1224, "*": 1225, "\u2581countries": 1226, "\u2581extra": 1227, "\u2581success": 1228, "\u2581hold": 1229, "P": 1230, "\u2581worth": 1231, "\u2581conditions": 1232, "\u2581H": 1233, "\u2581student": 1234, "\u2581sound": 1235, "\u2581credit": 1236, "\u2581favorite": 1237, "\u2581goal": 1238, "\u2581impact": 1239, "\u2581town": 1240, "\u2581necessary": 1241, "\u2581goes": 1242, "\u2581shall": 1243, "\u2581First": 1244, "\u2581hair": 1245, "man": 1246, "\u2581board": 1247, "\u2581travel": 1248, "\u2581leading": 1249, "\u2581location": 1250, "\u2581attention": 1251, "\u2581modern": 1252, "\u2581sent": 1253, "\u2581plans": 1254, "\u2581gave": 1255, "\u2581expected": 1256, "\u2581interesting": 1257, "\u2581Most": 1258, "\u258121": 1259, "\u2581West": 1260, "\u2581variety": 1261, "\u2581levels": 1262, "\u2581)": 1263, "\u2581standard": 1264, "\u2581loss": 1265, "\u2581saying": 1266, "\u2581red": 1267, "\u2581consider": 1268, "\u2581Park": 1269, "\u2581release": 1270, "\u2581source": 1271, "\u2581weight": 1272, "\u2581parts": 1273, "\u2581fast": 1274, "\u2581hear": 1275, "E": 1276, "\u2581July": 1277, "\u2581January": 1278, "\u2581allows": 1279, "\u2581India": 1280, "\u2581cases": 1281, "\u2581International": 1282, "\u2581collection": 1283, "\u2581subject": 1284, "b": 1285, "\u2581Day": 1286, "\u2581effective": 1287, "\u2581huge": 1288, "\u2581Even": 1289, "\u2581effect": 1290, "\u2581thinking": 1291, "\u25812013": 1292, "\u2581stock": 1293, "\u2581costs": 1294, "\u2581safe": 1295, "\u2581sale": 1296, "\u258140": 1297, "\u2581completely": 1298, "\u2581wrong": 1299, "\u2581improve": 1300, "K": 1301, "\u2581piece": 1302, "\u2581groups": 1303, "\u2581Many": 1304, "\u2581marketing": 1305, "\u2581providing": 1306, "\u2581global": 1307, "\u2581purchase": 1308, "\u2581programs": 1309, "\u2581Don": 1310, "\u2581land": 1311, "\u2581hands": 1312, "\u2581played": 1313, "\u2581watch": 1314, "\u2581released": 1315, "\u258119": 1316, "\u2581section": 1317, "\u2581significant": 1318, "en": 1319, "\u2581court": 1320, "\u2581link": 1321, "\u2581knew": 1322, "\u2581daily": 1323, "\u2581equipment": 1324, "It": 1325, "\u2581Inc": 1326, "\u2581solution": 1327, "\u2581relationship": 1328, "\u2581seem": 1329, "\u2581answer": 1330, "\u2581heard": 1331, "\u2581device": 1332, "\u2581Sunday": 1333, "\u2581legal": 1334, "\u2581rights": 1335, "\u2581London": 1336, "\u2581multiple": 1337, "\u2581born": 1338, "\u2581send": 1339, "\u2581fit": 1340, "\u2581TV": 1341, "\u2581English": 1342, "\u2581safety": 1343, "\u2581highly": 1344, "\u2581Saturday": 1345, "\u2581mother": 1346, "\u2581clean": 1347, "\u2581pre": 1348, "R": 1349, "\u25812012": 1350, "\u2581fire": 1351, "\u2581box": 1352, "\u2581ground": 1353, "\u2581Google": 1354, "\u2581picture": 1355, "\u2581towards": 1356, "\u2581Christmas": 1357, "\u2581walk": 1358, "\u2581sometimes": 1359, "\u2581gives": 1360, "\u2581types": 1361, "\u2581track": 1362, "\u2581click": 1363, "\u2581situation": 1364, "\u2581eyes": 1365, "\u2581More": 1366, "\u2581tried": 1367, "\u2581September": 1368, "\u2581Well": 1369, "\u2581October": 1370, "old": 1371, "\u2581directly": 1372, "\u2581Department": 1373, "\u2581December": 1374, "\u2581materials": 1375, "\u2581co": 1376, "\u2581resources": 1377, "\u2581published": 1378, "\u2581led": 1379, "\u2581mobile": 1380, "\u2581looked": 1381, "\u2581benefits": 1382, "\u2581hot": 1383, "\u2581term": 1384, "\u2581himself": 1385, "\u2581center": 1386, "\u2581turned": 1387, "\u2581Since": 1388, "\u2581feature": 1389, "\u2581excellent": 1390, "\u2581Thank": 1391, "\u2581starting": 1392, "\u2581Home": 1393, "\u2581fall": 1394, "\u2581San": 1395, "\u2581Are": 1396, "\u2581floor": 1397, "an": 1398, "\u2581fine": 1399, "\u2581trip": 1400, "\u2581Facebook": 1401, "\u2581language": 1402, "\u2581considered": 1403, "\u2581previous": 1404, "\u2581wall": 1405, "l": 1406, "\u2581V": 1407, "\u2581interested": 1408, "\u2581request": 1409, "\u2581app": 1410, "\u2581reported": 1411, "\u2581digital": 1412, "\u2581November": 1413, "\u2581Once": 1414, "\u2581tools": 1415, "\u2581organization": 1416, "\u2581nature": 1417, "\u2581High": 1418, "\u2581fully": 1419, "\u2581Monday": 1420, "\u2581movie": 1421, "\u2581Co": 1422, "\u2581analysis": 1423, "\u2581message": 1424, "\u2581sign": 1425, "\u2581images": 1426, "\u2581pain": 1427, "\u2581prices": 1428, "\u2581brought": 1429, "\u2581posted": 1430, "\u2581reach": 1431, "12": 1432, "\u2581happen": 1433, "\u2581Or": 1434, "20": 1435, "\u2581base": 1436, "\u2581wish": 1437, "\u2581response": 1438, "\u2581feeling": 1439, "\u2581spent": 1440, "\u2581son": 1441, "\u2581war": 1442, "\u2581planning": 1443, "\u2581exactly": 1444, "time": 1445, "\u2581spend": 1446, "\u2581Great": 1447, "\u2581Let": 1448, "\u2581require": 1449, "\u2581definitely": 1450, "\u2581stuff": 1451, "\u2581blood": 1452, "\u2581positive": 1453, "\u2581developed": 1454, "\u2581develop": 1455, "\u2581photo": 1456, "\u2581stand": 1457, "\u2581moving": 1458, "\u2581method": 1459, "\u258122": 1460, "\u2581maybe": 1461, "\u2581W": 1462, "\u2581trade": 1463, "\u2581break": 1464, "\u2581finally": 1465, "\u2581limited": 1466, "\u2581Get": 1467, "\u2581physical": 1468, "\u2581pick": 1469, "\u2581character": 1470, "\u2581traditional": 1471, "\u2581player": 1472, "\u2581successful": 1473, "G": 1474, "\u2581certainly": 1475, "\u2581hour": 1476, "\u2581X": 1477, "\u2581difference": 1478, "\u2581growing": 1479, "\u2581sites": 1480, "\u2581regular": 1481, "\u2581California": 1482, "\u2581baby": 1483, "\u2581stage": 1484, "\u2581photos": 1485, "\u2581gets": 1486, "\u2581paid": 1487, "\u2581region": 1488, "\u2581round": 1489, "F": 1490, "\u2581kitchen": 1491, "p": 1492, "\u2581ones": 1493, "\u2581machine": 1494, "\u2581wait": 1495, "\u2581wonderful": 1496, "\u2581stories": 1497, "\u2581Be": 1498, "\u2581August": 1499, "\u2581individuals": 1500, "\u2581White": 1501, "L": 1502, "\u2581father": 1503, ">": 1504, "\u2581economic": 1505, "\u2581activity": 1506, "\u2581understanding": 1507, "\u2581vehicle": 1508, "\u2581green": 1509, "=": 1510, "\u2581match": 1511, "\u2581creating": 1512, "\u25812011": 1513, "\u2581apply": 1514, "\u2581construction": 1515, "\u2581Health": 1516, "\u2581pressure": 1517, "\u2581bed": 1518, "\u2581evidence": 1519, "\u2581loved": 1520, "\u2581note": 1521, "\u2581weekend": 1522, "\u2581begin": 1523, "\u25812010": 1524, "ers": 1525, "\u2581feet": 1526, "\u2581solutions": 1527, "\u2581campaign": 1528, "\u2581text": 1529, "\u2581helps": 1530, "\u2581screen": 1531, "\u2581earlier": 1532, "\u2581nearly": 1533, "15": 1534, "\u2581David": 1535, "\u2581places": 1536, "h": 1537, "\u2581quick": 1538, "\u2581deep": 1539, "\u2581|": 1540, "\u2581charge": 1541, "\u2581Free": 1542, "\u2581Group": 1543, "al": 1544, "\u2581expect": 1545, "\u2581requirements": 1546, "\u2581beginning": 1547, "\u2581statement": 1548, "\u2581families": 1549, "\u2581s": 1550, "\u2581culture": 1551, "\u2581Black": 1552, "\u2581wife": 1553, "11": 1554, "\u2581February": 1555, "\u2581Street": 1556, "\u2581businesses": 1557, "\u2581Canada": 1558, "\u2581European": 1559, "\u2581dog": 1560, "\u2581Thursday": 1561, "\u2581Service": 1562, "\u2581effects": 1563, "\u2581al": 1564, "\u2581internet": 1565, "\u2581+": 1566, "\u2581applications": 1567, "\u2581employees": 1568, "\u2581shown": 1569, "\u2581cool": 1570, "\u2581function": 1571, "\u2581eye": 1572, "\u2581couldn": 1573, "\u2581president": 1574, "\u2581college": 1575, "\u2581fresh": 1576, "\u2581announced": 1577, "\u2581investment": 1578, "\u2581beyond": 1579, "of": 1580, "\u2581damage": 1581, "\u2581healthy": 1582, "\u2581race": 1583, "\u2581speed": 1584, "\u2581alone": 1585, "\u2581Tuesday": 1586, "\u2581immediately": 1587, "\u2581bar": 1588, "\u2581Although": 1589, "\u2581moved": 1590, "\u2581benefit": 1591, "\u2581increased": 1592, "\u2581goals": 1593, "\u2581changed": 1594, "\u2581Yes": 1595, "\u2581Washington": 1596, "\u2581wrote": 1597, "\u2581THE": 1598, "\u2581basis": 1599, "\u258123": 1600, "\u2581particularly": 1601, "\u2581purpose": 1602, "\u2581states": 1603, "\u2581opportunities": 1604, "\u2581talking": 1605, "st": 1606, "\u2581shot": 1607, "\u2581Jesus": 1608, "N": 1609, "\u2581truly": 1610, "\u2581Europe": 1611, "\u2581hotel": 1612, "\u2581commercial": 1613, "\u2581allowed": 1614, "\u2581billion": 1615, "\u2581although": 1616, "\u2581East": 1617, "\u2581grow": 1618, "\u2581offered": 1619, "\u2581Her": 1620, "\u2581church": 1621, "\u2581effort": 1622, "\u2581Wednesday": 1623, "\u2581rates": 1624, "\u2581happened": 1625, "\u2581met": 1626, "\u258160": 1627, "as": 1628, "\u2581overall": 1629, "\u2581Each": 1630, "\u2581pictures": 1631, "it": 1632, "\u2581pass": 1633, "\u2581storage": 1634, "\u2581associated": 1635, "\u2581active": 1636, "\u2581tool": 1637, "\u2581shop": 1638, "\u2581reports": 1639, "\u2581platform": 1640, "\u2581heat": 1641, "\u2581sell": 1642, "\u2581serve": 1643, "\u2581thanks": 1644, "\u2581ahead": 1645, "\u2581join": 1646, "\u2581vote": 1647, "\u2581client": 1648, "\u2581entry": 1649, "\u2581title": 1650, "\u2581girl": 1651, "\u2581Best": 1652, "\u2581guide": 1653, "\u2581wants": 1654, "\u2581un": 1655, "\u2581offering": 1656, "\u2581schools": 1657, "\u2581official": 1658, "\u2581compared": 1659, "\u2581easier": 1660, "\u2581whose": 1661, "\u2581avoid": 1662, "\u2581According": 1663, "\u2581double": 1664, "\u2581Because": 1665, "\u2581helped": 1666, "\u2581sort": 1667, "\u2581British": 1668, "\u2581pages": 1669, "\u2581direct": 1670, "\u2581basic": 1671, "\u2581eat": 1672, "\u2581recommend": 1673, "\u2581claim": 1674, "\u2581died": 1675, "\u2581College": 1676, "\u2581cash": 1677, "\u2581advice": 1678, "\u2581Company": 1679, "\u2581setting": 1680, "\u2581military": 1681, "\u2581disease": 1682, "@": 1683, "\u2581reduce": 1684, "\u2581rules": 1685, "\u2581middle": 1686, "\u2581numbers": 1687, "\u2581anti": 1688, "\u2581display": 1689, "\u2581degree": 1690, "\u2581touch": 1691, "\u2581unit": 1692, "\u2581science": 1693, "\u2581surface": 1694, "\u2581firm": 1695, "\u2581plant": 1696, "\u2581normal": 1697, "\u2581gas": 1698, "\u2581gone": 1699, "\u2581Australia": 1700, "\u2581Click": 1701, "O": 1702, "\u2581studies": 1703, "\u2581band": 1704, "\u2581largest": 1705, "\u2581condition": 1706, "\u2581blue": 1707, "\u2581followed": 1708, "\u2581supply": 1709, "\u2581song": 1710, "\u2581force": 1711, "\u2581regarding": 1712, "\u2581gold": 1713, "\u2581comment": 1714, "\u2581Today": 1715, "\u2581Court": 1716, "\u2581During": 1717, "\u2581voice": 1718, "\u2581challenge": 1719, "\u2581seven": 1720, "\u2581serious": 1721, "\u2581Paul": 1722, "\u2581finish": 1723, "\u2581Services": 1724, "\u2581reasons": 1725, "\u2581devices": 1726, "\u2581act": 1727, "\u2581lines": 1728, "\u2581Q": 1729, "\u2581structure": 1730, "\u2581gift": 1731, "\u2581powerful": 1732, "\u2581perhaps": 1733, "\u2581See": 1734, "\u2581served": 1735, "\u258128": 1736, "\u2581teams": 1737, "\u2581lots": 1738, "\u2581complex": 1739, "\u2581comments": 1740, "\u2581bottom": 1741, "\u2581weather": 1742, "\u2581uses": 1743, "\u2581responsible": 1744, "\u2581husband": 1745, "\u2581protect": 1746, "\u2581miles": 1747, "\u2581annual": 1748, "\u2581James": 1749, "\u2581produce": 1750, "\u2581glass": 1751, "\u2581War": 1752, "\u2581budget": 1753, "\u2581finished": 1754, "\u2581population": 1755, "\u2581kept": 1756, "\u2581agree": 1757, "\u2581sold": 1758, "\u2581existing": 1759, "\u258126": 1760, "\u2581greater": 1761, "\u2581cold": 1762, "\u2581Internet": 1763, "am": 1764, "\u2581Business": 1765, "\u2581income": 1766, "\u2581aren": 1767, "\u2581Have": 1768, "\u2581seeing": 1769, "\u2581et": 1770, "\u2581cancer": 1771, "\u2581useful": 1772, "H": 1773, "\u2581experienced": 1774, "\u2581window": 1775, "\u2581extremely": 1776, "\u2581dark": 1777, "\u2581prior": 1778, "\u2581delivery": 1779, "\u2581Council": 1780, "\u2581Re": 1781, "\u2581target": 1782, "\u2581plus": 1783, "\u2581named": 1784, "\u2581driving": 1785, "\u2581director": 1786, "\u2581wedding": 1787, "\u2581club": 1788, "\u2581helping": 1789, "\u2581fans": 1790, "\u2581haven": 1791, "\u2581People": 1792, "\u2581highest": 1793, "50": 1794, "\u2581\u2022": 1795, "\u2581French": 1796, "\u2581completed": 1797, "\u2581Good": 1798, "\u2581patient": 1799, "\u2581comfortable": 1800, "\u2581fight": 1801, "\u2581opening": 1802, "nd": 1803, "\u2581wouldn": 1804, "\u2581figure": 1805, "\u2581author": 1806, "\u2581movement": 1807, "\u2581strategy": 1808, "\u2581remain": 1809, "\u2581quarter": 1810, "\u2581Another": 1811, "\u25812009": 1812, "\u2581Red": 1813, "$": 1814, "\u2581attack": 1815, "\u2581daughter": 1816, "\u25812008": 1817, "\u2581coffee": 1818, "\u2581federal": 1819, "\u2581ball": 1820, "\u2581larger": 1821, "\u2581camera": 1822, "\u2581appear": 1823, "\u258127": 1824, "\u2581appropriate": 1825, "\u2581onto": 1826, "\u2581efforts": 1827, "\u2581speak": 1828, "\u2581Research": 1829, "\u2581essential": 1830, "\u2581bank": 1831, "\u2581spot": 1832, "\u2581passed": 1833, "\u2581Association": 1834, "\u2581creative": 1835, "\u2581models": 1836, "\u2581letter": 1837, "\u2581lack": 1838, "\u2581established": 1839, "\u2581leaders": 1840, "\u2581Michael": 1841, "\u2581=": 1842, "\u2581prevent": 1843, "\u2581files": 1844, "\u2581tour": 1845, "\u2581society": 1846, "\u2581wood": 1847, "\u2581shared": 1848, "\u2581General": 1849, "\u2581super": 1850, "\u2581jobs": 1851, "\u2581Two": 1852, "\u2581connection": 1853, "\u2581actual": 1854, "\u2581characters": 1855, "\u2581protection": 1856, "\u2581selection": 1857, "\u2581straight": 1858, "\u2581learned": 1859, "\u2581guys": 1860, "\u2581generally": 1861, "\u2581primary": 1862, "\u2581guy": 1863, "\u2581News": 1864, "\u2581Other": 1865, "\u2581continued": 1866, "us": 1867, "\u2581engine": 1868, "\u2581biggest": 1869, "\u2581methods": 1870, "\u2581http": 1871, "\u2581Office": 1872, "\u2581sleep": 1873, "\u2581cell": 1874, "\u2581Make": 1875, "\u2581Who": 1876, "\u2581drug": 1877, "\u2581Act": 1878, "\u2581finding": 1879, "\u2581century": 1880, "\u2581sharing": 1881, "\u2581evening": 1882, "25": 1883, "\u2581steps": 1884, "\u2581Windows": 1885, "\u2581carry": 1886, "\u2581Will": 1887, "\u2581pieces": 1888, "\u2581Texas": 1889, "is": 1890, "\u2581cells": 1891, "f": 1892, "\u2581leader": 1893, "\u2581Church": 1894, "z": 1895, "\u2581notice": 1896, "\u2581described": 1897, "\u2581album": 1898, "\u2581Last": 1899, "day": 1900, "\u2581reality": 1901, "co": 1902, "\u2581trust": 1903, "\u2581payment": 1904, "\u2581item": 1905, "\u2581eight": 1906, "\u2581owner": 1907, "\u2581cards": 1908, "\u2581capital": 1909, "\u2581Board": 1910, "\u2581covered": 1911, "\u2581achieve": 1912, "\u2581King": 1913, "\u2581Like": 1914, "\u2581traffic": 1915, "\u2581enter": 1916, "\u2581m": 1917, "\u2581Chinese": 1918, "\u2581workers": 1919, "\u2581produced": 1920, "\u2581older": 1921, "\u2581Use": 1922, "\u2581critical": 1923, "\u2581press": 1924, "\u2581waiting": 1925, "\u2581warm": 1926, "\u2581heavy": 1927, "\u2581therefore": 1928, "\u2581wear": 1929, "\u2581journey": 1930, "\u2581d": 1931, "\u2581opened": 1932, "\u2581economy": 1933, "\u2581Check": 1934, "\u2581demand": 1935, "\u2581respect": 1936, "\u2581reviews": 1937, "\u2581showed": 1938, "\u2581memory": 1939, "\u2581partner": 1940, "\u2581t": 1941, "\u2581v": 1942, "\u2581cross": 1943, "\u2581@": 1944, "\u2581whatever": 1945, "\u2581button": 1946, "\u258131": 1947, "\u2581sports": 1948, "\u2581ideal": 1949, "able": 1950, "\u2581advantage": 1951, "\u2581server": 1952, "\u2581tree": 1953, "\u2581drop": 1954, "\u2581toward": 1955, "\u2581requires": 1956, "\u2581conference": 1957, "\u2581placed": 1958, "\u2581brain": 1959, "\u2581host": 1960, "\u2581Love": 1961, "\u2581contract": 1962, "\u2581remove": 1963, "u": 1964, "www": 1965, "\u2581dry": 1966, "no": 1967, "\u2581Go": 1968, "\u2581custom": 1969, "\u2581poor": 1970, "\u2581select": 1971, "\u2581scene": 1972, "\u2581girls": 1973, "\u2581values": 1974, "W": 1975, "\u2581audience": 1976, "\u2581views": 1977, "\u2581estate": 1978, "\u2581mentioned": 1979, "\u2581status": 1980, "\u2581update": 1981, "\u2581Life": 1982, "\u2581direction": 1983, "16": 1984, "\u2581truth": 1985, "\u2581driver": 1986, "\u2581steel": 1987, "\u2581correct": 1988, "V": 1989, "\u2581balance": 1990, "\u2581England": 1991, "\u2581presented": 1992, "\u2581Florida": 1993, "\u2581Air": 1994, "\u2581Art": 1995, "\u2581parties": 1996, "\u2581handle": 1997, "\u2581path": 1998, "\u2581keeping": 1999, "\u2581multi": 2000, "\u2581communication": 2001, "\u2581homes": 2002, "\u2581determine": 2003, "\u2581remains": 2004, "\u2581happens": 2005, "\u2581maintain": 2006, "term": 2007, "\u2581background": 2008, "\u2581pool": 2009, "\u2581park": 2010, "\u2581street": 2011, "\u2581shape": 2012, "\u2581Apple": 2013, "\u2581winter": 2014, "\u2581dead": 2015, "\u2581adding": 2016, "\u2581shopping": 2017, "\u2581teaching": 2018, "\u2581elements": 2019, "\u2581cars": 2020, "ness": 2021, "\u2581thank": 2022, "\u2581ten": 2023, "\u2581Management": 2024, "\u2581La": 2025, "\u2581ended": 2026, "\u2581competition": 2027, "\u2581Lord": 2028, "\u2581session": 2029, "\u2581n": 2030, "\u2581bought": 2031, "\u2581metal": 2032, "\u2581ice": 2033, "\u2581tips": 2034, "\u2581organizations": 2035, "\u2581Green": 2036, "\u2581Africa": 2037, "\u2581lose": 2038, "\u2581standards": 2039, "\u2581factors": 2040, "\u2581star": 2041, "\u2581leaving": 2042, "\u258129": 2043, "\u2581caused": 2044, "\u2581majority": 2045, "\u2581holiday": 2046, "\u2581contains": 2047, "18": 2048, "\u2581operations": 2049, "\u2581seemed": 2050, "\u2581aware": 2051, "\u2581soft": 2052, "\u2581plenty": 2053, "\u2581Indian": 2054, "\u2581Road": 2055, "\u2581experiences": 2056, "\u2581Club": 2057, "\u2581garden": 2058, "\u2581manage": 2059, "\u2581De": 2060, "\u2581Christ": 2061, "\u2581developing": 2062, "\u2581Every": 2063, "\u2581technical": 2064, "\u2581discuss": 2065, "\u2581fan": 2066, "\u2581strength": 2067, "\u2581selected": 2068, "\u2581showing": 2069, "\u2581challenges": 2070, "\u2581claims": 2071, "\u2581station": 2072, "\u2581communities": 2073, "\u2581deliver": 2074, "\u2581furniture": 2075, "\u2581officials": 2076, "\u2581Over": 2077, "\u2581calls": 2078, "\u2581registered": 2079, "\u2581nation": 2080, "\u2581separate": 2081, "\u2581fish": 2082, "org": 2083, "\u2581wine": 2084, "\u2581foreign": 2085, "pm": 2086, "X": 2087, "\u2581gain": 2088, "\u2581welcome": 2089, "\u2581thus": 2090, "\u2581perform": 2091, "\u2581minute": 2092, "\u2581schedule": 2093, "\u2581meaning": 2094, "\u2581block": 2095, "\u2581hospital": 2096, "\u25812007": 2097, "\u2581coverage": 2098, "\u2581Take": 2099, "\u2581closed": 2100, "\u2581agreement": 2101, "for": 2102, "free": 2103, "\u2581copy": 2104, "\u2581links": 2105, "\u2581watching": 2106, "\u2581raised": 2107, "\u2581>": 2108, "\u2581interview": 2109, "\u2581buying": 2110, "\u2581exercise": 2111, "\u2581shares": 2112, "\u2581thousands": 2113, "\u2581becoming": 2114, "\u2581Where": 2115, "\u2581decide": 2116, "\u2581clearly": 2117, "\u2581print": 2118, "\u2581sun": 2119, "\u2581names": 2120, "\u2581listed": 2121, "\u2581Bank": 2122, "\u2581Institute": 2123, "\u2581central": 2124, "\u2581Twitter": 2125, "\u2581testing": 2126, "\u2581senior": 2127, "\u2581despite": 2128, "\u2581forms": 2129, "\u2581capacity": 2130, "\u2581runs": 2131, "\u2581Christian": 2132, "\u2581concept": 2133, "\u2581smaller": 2134, "\u2581Their": 2135, "\u2581helpful": 2136, "\u2581otherwise": 2137, "\u2581residents": 2138, "\u00ae": 2139, "\u2581manager": 2140, "\u2581classes": 2141, "\u2581independent": 2142, "mm": 2143, "\u2581Any": 2144, "\u2581funds": 2145, "\u2581sit": 2146, "\u2581Both": 2147, "\u2581stress": 2148, "\u2581prepared": 2149, "\u2581waste": 2150, "\u2581mission": 2151, "\u2581bill": 2152, "\u258180": 2153, "\u2581previously": 2154, "\u2581flow": 2155, "\u258190": 2156, "\u2581River": 2157, "\u2581secure": 2158, "\u2581becomes": 2159, "14": 2160, "\u2581operating": 2161, "\u2581spring": 2162, "\u2581sounds": 2163, "\u2581sea": 2164, "\u2581b": 2165, "\u2581friendly": 2166, "\u2581famous": 2167, "\u2581dedicated": 2168, "\u2581Design": 2169, "\u2581absolutely": 2170, "\u2581advanced": 2171, "\u2581sweet": 2172, "\u2581fill": 2173, "\u2581rock": 2174, "\u2581sources": 2175, "\u2581solid": 2176, "\u2581spending": 2177, "\u2581killed": 2178, "v": 2179, "rd": 2180, "\u2581la": 2181, "\u2581reached": 2182, "\u2581loan": 2183, "\u2581train": 2184, "\u2581posts": 2185, "\u2581managed": 2186, "\u2581election": 2187, "\u2581owners": 2188, "\u2581fear": 2189, "\u2581sector": 2190, "\u2581Pro": 2191, "\u2581presence": 2192, "\u2581relevant": 2193, "\u2581appears": 2194, "\u2581dinner": 2195, "\u2581facilities": 2196, "\u2581mid": 2197, "\u2581changing": 2198, "\u2581excited": 2199, "\u2581Big": 2200, "\u2581progress": 2201, "\u2581Lake": 2202, "\u2581experts": 2203, "\u2581task": 2204, "\u2581classic": 2205, "\u2581properties": 2206, "like": 2207, "\u2581bag": 2208, "13": 2209, "\u2581Time": 2210, "\u2581repair": 2211, "\u2581knows": 2212, "\u2581restaurant": 2213, "\u2581mix": 2214, "\u2581mostly": 2215, "\u2581attempt": 2216, "\u2581numerous": 2217, "\u2581guess": 2218, "\u2581proper": 2219, "\u2581walking": 2220, "\u2581opinion": 2221, "\u2581USA": 2222, "\u2581enjoyed": 2223, "\u2581ride": 2224, "\u2581transfer": 2225, "ie": 2226, "\u2581records": 2227, "\u2581agency": 2228, "\u2581Whether": 2229, "\u2581thoughts": 2230, "\u2581length": 2231, "\u2581animals": 2232, "\u2581core": 2233, "\u2581administration": 2234, "\u2581George": 2235, "\u2581cleaning": 2236, "\u2581putting": 2237, "\u2581meant": 2238, "\u2581plants": 2239, "\u2581continues": 2240, "\u2581rich": 2241, "\u2581football": 2242, "\u2581operation": 2243, "\u2581techniques": 2244, "\u2581artist": 2245, "\u2581Mark": 2246, "\u2581temperature": 2247, "\u2581Science": 2248, "\u2581distance": 2249, "\u2581colors": 2250, "17": 2251, "J": 2252, "\u2581awesome": 2253, "\u2581combination": 2254, "\u2581actions": 2255, "This": 2256, "\u2581beauty": 2257, "\u2581Find": 2258, "\u2581trading": 2259, "\u2581species": 2260, "\u2581Amazon": 2261, "\u2581initial": 2262, "\u2581assist": 2263, "\u2581performed": 2264, "\u2581alternative": 2265, "\u2581Government": 2266, "\u2581die": 2267, "one": 2268, "\u2581map": 2269, "\u2581topic": 2270, "\u2581score": 2271, "\u2581accept": 2272, "100": 2273, "\u2581teacher": 2274, "\u2581eventually": 2275, "You": 2276, "\u2581Web": 2277, "\u2581doctor": 2278, "\u2581Education": 2279, "\u2581joined": 2280, "\u2581expensive": 2281, "\u2581focused": 2282, "\u2581pair": 2283, "\u258170": 2284, "\u2581c": 2285, "\u2581returned": 2286, "\u2581injury": 2287, "\u2581package": 2288, "\u2581Oh": 2289, "\u2581200": 2290, "line": 2291, "\u2581Year": 2292, "\u2581peace": 2293, "\u2581policies": 2294, "\u2581IT": 2295, "\u2581connected": 2296, "\u2581leadership": 2297, "\u2581Press": 2298, "\u2581Director": 2299, "\u2581Online": 2300, "\u2581documents": 2301, "\u2581discussion": 2302, "\u2581Bay": 2303, "\u2581selling": 2304, "\u2581coach": 2305, "\u2581Before": 2306, "\u2581department": 2307, "\u2581forget": 2308, "\u2581trial": 2309, "\u2581rule": 2310, "\u2581filled": 2311, "\u2581applied": 2312, "\u2581identify": 2313, "\u2581explore": 2314, "\u2581cheap": 2315, "\u2581Y": 2316, "\u2581foot": 2317, "\u2581Police": 2318, "by": 2319, "\u2581slightly": 2320, "\u2581Law": 2321, "\u2581faith": 2322, "\u2581Maybe": 2323, "\u2581German": 2324, "\u2581appeared": 2325, "\u2581laws": 2326, "\u2581Open": 2327, "\u2581seat": 2328, "\u2581Committee": 2329, "\u2581negative": 2330, "\u2581asking": 2331, "\u2581Central": 2332, "\u2581fashion": 2333, "\u2581beach": 2334, "\u2581fair": 2335, "\u2581unless": 2336, "\u2581reference": 2337, "\u2581mental": 2338, "\u2581units": 2339, "\u2581videos": 2340, "\u2581funding": 2341, "\u2581eating": 2342, "\u2581award": 2343, "\u2581professionals": 2344, "\u2581vision": 2345, "\u2581signed": 2346, "\u2581Man": 2347, "\u2581practices": 2348, "\u2581scale": 2349, "\u2581cities": 2350, "\u2581starts": 2351, "\u2581comfort": 2352, "\u2581detail": 2353, "\u2581dream": 2354, "out": 2355, "\u2581Those": 2356, "\u2581Minister": 2357, "\u2581hearing": 2358, "\u2581decisions": 2359, "\u2581Post": 2360, "\u2581winning": 2361, "\u2581corner": 2362, "\u2581edge": 2363, "\u2581slow": 2364, "\u2581Island": 2365, "\u2581guests": 2366, "\u2581missing": 2367, "\u2581en": 2368, "\u2581visitors": 2369, "\u2581Only": 2370, "\u2581generation": 2371, "\u2581concerns": 2372, "\u2581Add": 2373, "\u2581miss": 2374, "\u2581theme": 2375, "\u2581increasing": 2376, "\u2581League": 2377, "\u2581France": 2378, "\u2581suggest": 2379, "\u2581maximum": 2380, "\u2581markets": 2381, "\u2581rooms": 2382, "\u2581fee": 2383, "\u2581Public": 2384, "\u2581error": 2385, "\u2581sitting": 2386, "\u2581brother": 2387, "\u2581boy": 2388, "\u2581rise": 2389, "\u2581expert": 2390, "\u2581fantastic": 2391, "\u2581Japan": 2392, "\u2581teachers": 2393, "\u2581corporate": 2394, "\u2581exchange": 2395, "\u2581frame": 2396, "\u2581songs": 2397, "\u2581II": 2398, "\u2581influence": 2399, "\u2581AND": 2400, "at": 2401, "\u2581holding": 2402, "\u2581totally": 2403, "\u25812006": 2404, "\u2581Next": 2405, "\u2581maintenance": 2406, "\u2581approximately": 2407, "\u2581minimum": 2408, "\u2581allowing": 2409, "\u2581married": 2410, "\u2581District": 2411, "\u2581artists": 2412, "\u2581Israel": 2413, "\u2581Party": 2414, "\u2581essay": 2415, "\u2581female": 2416, "\u2581plastic": 2417, "\u2581busy": 2418, "\u2581document": 2419, "\u2581bathroom": 2420, "\u2581removed": 2421, "\u2581processes": 2422, "\u2581leaves": 2423, "\u2581climate": 2424, "\u2581Russia": 2425, "\u2581exciting": 2426, "\u2581Hall": 2427, "\u2581sets": 2428, "500": 2429, "\u2581Smith": 2430, "\u2581relationships": 2431, "\u2581Union": 2432, "\u2581Read": 2433, "\u2581medium": 2434, "\u2581treat": 2435, "\u2581Me": 2436, "\u2581debt": 2437, "\u2581afternoon": 2438, "\u2581Germany": 2439, "\u2581Obama": 2440, "\u2581possibly": 2441, "\u2581radio": 2442, "\u2581spread": 2443, "\u2581bus": 2444, "\u2581Star": 2445, "\u2581facility": 2446, "\u2581calling": 2447, "\u2581taste": 2448, "\u2581brings": 2449, "\u2581wind": 2450, "\u2581Note": 2451, "\u2581explain": 2452, "\u258135": 2453, "\u2581www": 2454, "\u2581flat": 2455, "\u2581south": 2456, "\u2581manner": 2457, "\u25812000": 2458, "\u2581Russian": 2459, "\u2581Chicago": 2460, "\u2581responsibility": 2461, "\u2581whom": 2462, "\u2581Ltd": 2463, "\u2581lived": 2464, "\u2581Blue": 2465, "\u2581processing": 2466, "\u2581Does": 2467, "\u2581Foundation": 2468, "\u2581smart": 2469, "\u2581info": 2470, "\u2581trees": 2471, "\u2581assistance": 2472, "\u2581menu": 2473, "\u2581connect": 2474, "\u2581format": 2475, "\u2581pattern": 2476, "\u2581drink": 2477, "\u2581detailed": 2478, "\u2581Super": 2479, "\u2581north": 2480, "\u2581volume": 2481, "\u2581Top": 2482, "\u2581lovely": 2483, "\u2581committed": 2484, "\u2581investigation": 2485, "\u2581500": 2486, "\u2581OF": 2487, "\u2581except": 2488, "\u2581yes": 2489, "\u2581seconds": 2490, "\u2581Social": 2491, "\u2581Bill": 2492, "\u2581Data": 2493, "\u2581stone": 2494, "\u2581doubt": 2495, "\u2581centre": 2496, "\u2581properly": 2497, "\u2581nor": 2498, "\u2581forces": 2499, "\u2581vehicles": 2500, "\u2581notes": 2501, "\u2581articles": 2502, "\u2581Development": 2503, "\u2581proud": 2504, "\u2581net": 2505, "\u2581failed": 2506, "\u2581stores": 2507, "\u2581internal": 2508, "\u2581category": 2509, "\u2581ourselves": 2510, "\u2581serving": 2511, "\u2581raise": 2512, "\u2581Al": 2513, "In": 2514, "\u2581Music": 2515, "\u2581fees": 2516, "\u2581Power": 2517, "\u2581typically": 2518, "\u2581Robert": 2519, "\u2581measure": 2520, "\u2581charges": 2521, "\u2581panel": 2522, "\u2581African": 2523, "\u2581Western": 2524, "\u2581arrived": 2525, "\u2581district": 2526, "\u2581recommended": 2527, "\u2581combined": 2528, "\u2581launch": 2529, "\u2581ran": 2530, "\u2581l": 2531, "\u2581fourth": 2532, "\u2581updated": 2533, "\u2581discovered": 2534, "\u2581cent": 2535, "\u2581advance": 2536, "\u2581wonder": 2537, "\u2581Book": 2538, "\u2581ship": 2539, "\u2581conversation": 2540, "\u2581flight": 2541, "\u2581specifically": 2542, "\u2581environmental": 2543, "\u2581realize": 2544, "\u2581animal": 2545, "\u2581cultural": 2546, "\u2581outdoor": 2547, "\u2581Z": 2548, "\u2581master": 2549, "[": 2550, "\u2581worry": 2551, "\u2581instance": 2552, "\u2581bedroom": 2553, "40": 2554, "\u2581mine": 2555, "\u2581Congress": 2556, "\u2581Peter": 2557, "\u2581importance": 2558, "\u2581designs": 2559, "\u2581supported": 2560, "\u2581System": 2561, "\u2581Valley": 2562, "\u2581auto": 2563, "\u2581stopped": 2564, "\u2581behavior": 2565, "\u2581standing": 2566, "\u2581efficient": 2567, "\u2581Women": 2568, "\u2581<": 2569, "\u2581dress": 2570, "\u2581square": 2571, "\u2581Community": 2572, "19": 2573, "\u2581earth": 2574, "\u2581Society": 2575, "\u2581feels": 2576, "off": 2577, "\u2581installation": 2578, "\u2581listen": 2579, "\u2581draw": 2580, "\u2581introduced": 2581, "\u2581fuel": 2582, "\u2581caught": 2583, "\u2581beat": 2584, "\u2581affect": 2585, "\u2581paint": 2586, "\u2581battle": 2587, "\u2581measures": 2588, "\u25812005": 2589, "\u2581Security": 2590, "\u2581dating": 2591, "\u2581aspects": 2592, "\u2581leads": 2593, "\u2581housing": 2594, "\u2581Los": 2595, "\u2581sugar": 2596, "\u2581Which": 2597, "\u2581Microsoft": 2598, "\u2581fell": 2599, "\u2581;": 2600, "\u2581vs": 2601, "\u2581recipe": 2602, "\u2581seek": 2603, "\u2581profile": 2604, "\u2581Information": 2605, "\u2581revenue": 2606, "\u2581discover": 2607, "\u2581willing": 2608, "\u2581diet": 2609, "\u2581Earth": 2610, "\u2581readers": 2611, "\u2581Mary": 2612, "\u2581confidence": 2613, "\u2581adults": 2614, "\u2581mention": 2615, "\u2581Beach": 2616, "\u2581push": 2617, "\u2581writer": 2618, "\u2581anywhere": 2619, "\\": 2620, "\u2581delivered": 2621, "\u2581locations": 2622, "\u2581island": 2623, "le": 2624, "\u2581install": 2625, "\u2581novel": 2626, "\u2581installed": 2627, "U": 2628, "\u2581desire": 2629, "\u2581issued": 2630, "\u2581components": 2631, "\u2581seeking": 2632, "\u2581mode": 2633, "\u2581library": 2634, "\u2581carried": 2635, "\u2581pro": 2636, "which": 2637, "\u2581strategies": 2638, "\u2581nine": 2639, "\u2581proposed": 2640, "\u2581factor": 2641, "\u2581limit": 2642, "\u2581battery": 2643, "\u2581emergency": 2644, "\u2581agent": 2645, "\u2581decades": 2646, "\u2581pull": 2647, "\u2581cast": 2648, "\u2581sister": 2649, "\u2581Instead": 2650, "\u2581Thomas": 2651, "\u2581fat": 2652, "\u2581Commission": 2653, "\u2581theory": 2654, "\u2581promote": 2655, "\u2581partners": 2656, "\u2581lunch": 2657, "\u2581appearance": 2658, "\u2581Program": 2659, "\u2581TO": 2660, "\u2581paying": 2661, "\u2581determined": 2662, "\u2581faster": 2663, "\u2581approved": 2664, "\u2581birth": 2665, "\u2581executive": 2666, "\u2581officer": 2667, "\u2581intended": 2668, "#": 2669, "\u2581tend": 2670, "\u2581academic": 2671, "\u2581browser": 2672, "\u2581o": 2673, "\u2581dance": 2674, "\u2581mass": 2675, "\u2581attend": 2676, "\u2581provider": 2677, "\u2581bringing": 2678, "\u2581Project": 2679, "\u2581surgery": 2680, "\u2581accounts": 2681, "\u2581launched": 2682, "\u2581windows": 2683, "\u2581Hi": 2684, "\u2581appreciate": 2685, "\u258132": 2686, "\u2581worse": 2687, "\u2581affordable": 2688, "\u2581inspired": 2689, "\u2581broken": 2690, "less": 2691, "\u2581parking": 2692, "\u2581dogs": 2693, "\u2581failure": 2694, "\u2581noted": 2695, "\u2581tea": 2696, "\u2581concerned": 2697, "\u2581sub": 2698, "\u2581websites": 2699, "\u2581encourage": 2700, "\u2581catch": 2701, "\u2581owned": 2702, "\u2032": 2703, "\u2581dining": 2704, "\u2581forced": 2705, "\u2581functions": 2706, "\u2581automatically": 2707, "\u258145": 2708, "\u2581Did": 2709, "\u2581Journal": 2710, "\u2581Gold": 2711, "\u2581agreed": 2712, "\u2581object": 2713, "\u2581suitable": 2714, "\u2581stated": 2715, "\u2581prepare": 2716, "ton": 2717, "\u2581courses": 2718, "\u2581depending": 2719, "\u2581tickets": 2720, "\u2581Team": 2721, "\u2581Japanese": 2722, "\u2581identified": 2723, "\u2581purposes": 2724, "apos": 2725, "\u2581interests": 2726, "\u2581cream": 2727, "\u2581reduced": 2728, "\u2581signs": 2729, "\u2581doors": 2730, "\u2581ingredients": 2731, "\u2581PC": 2732, "\u2581dollars": 2733, "\u2581university": 2734, "\u2581Call": 2735, "\u2581twice": 2736, "\u2581technologies": 2737, "\u2581audio": 2738, "\u2581hundreds": 2739, "\u2581Americans": 2740, "\u2581shipping": 2741, "\u2581violence": 2742, "\u2581Brown": 2743, "\u2581Technology": 2744, "\u2581Up": 2745, "\u2581industrial": 2746, "\u2581Australian": 2747, "\u2581fixed": 2748, "\u2581sexual": 2749, "\u2581boat": 2750, "\u2581About": 2751, "\u2581familiar": 2752, "\u2581Chris": 2753, "\u2581participants": 2754, "\u2581imagine": 2755, "\u2581Hill": 2756, "\u2581telling": 2757, "\u2581context": 2758, "\u2581treated": 2759, "\u2581fix": 2760, "\u2581greatest": 2761, "\u2581bigger": 2762, "\u2581database": 2763, "\u2581Centre": 2764, "\u2581religious": 2765, "\u2581exist": 2766, "ia": 2767, "\u2581Canadian": 2768, "\u2581considering": 2769, "\u2581tough": 2770, "\u2581snow": 2771, "\u2581bike": 2772, "\u2581therapy": 2773, "\u2581defense": 2774, "\u2581improved": 2775, "\u2581practical": 2776, "\u2581aid": 2777, "\u2581Download": 2778, "\u2581suit": 2779, "\u2581mark": 2780, "\u2581feedback": 2781, "\u2581village": 2782, "\u2581sample": 2783, "\u2581planned": 2784, "\u2581chief": 2785, "\u2581Mike": 2786, "\u2581plays": 2787, "\u2581route": 2788, "\u2581birthday": 2789, "\u2581Tom": 2790, "\u2581drugs": 2791, "\u2581perspective": 2792, "\u2581sides": 2793, "\u2581officers": 2794, "\u2581count": 2795, "\u2581dumpster": 2796, "\u2581updates": 2797, "\u2581deals": 2798, "\u2581grade": 2799, "\u2581lights": 2800, "\u2581obtain": 2801, "\u2581employee": 2802, "\u2581trouble": 2803, "\u2581wearing": 2804, "\u2581EU": 2805, "\u2581significantly": 2806, "\u2581yesterday": 2807, "\u2581casino": 2808, "\u2581freedom": 2809, "\u2581distribution": 2810, "\u2581choices": 2811, "\u2581pop": 2812, "\u2581adult": 2813, "\u2581revealed": 2814, "\u2581affected": 2815, "\u2581spirit": 2816, "\u2581mom": 2817, "\u2581massive": 2818, "\u2581ID": 2819, "\u2581creation": 2820, "\u2581Water": 2821, "\u2581Family": 2822, "24": 2823, "\u2581charged": 2824, "\u2581boys": 2825, "\u2581Long": 2826, "\u2581speaking": 2827, "\u2581electric": 2828, "\u2581prefer": 2829, "\u2581comprehensive": 2830, "\u2581interior": 2831, "\u2581Cup": 2832, "\u2581William": 2833, "\u2581remaining": 2834, "\u2581television": 2835, "\u2581contain": 2836, "we": 2837, "\u2581chair": 2838, "\u2581PM": 2839, "\u2581concern": 2840, "\u2581recorded": 2841, "\u2581fund": 2842, "\u2581knowing": 2843, "\u2581male": 2844, "de": 2845, "\u2581Jan": 2846, "\u2581picked": 2847, "\u2581investors": 2848, "\u2581herself": 2849, "\u2581tests": 2850, "\u2581closer": 2851, "\u2581monthly": 2852, "\u2581supporting": 2853, "\u2581missed": 2854, "\u2581marriage": 2855, "\u2581expression": 2856, "\u2581chain": 2857, "\u2581Real": 2858, "\u2581covers": 2859, "\u25812004": 2860, "\u2581episode": 2861, "\u2581roll": 2862, "\u2581gun": 2863, "\u2581effectively": 2864, "\u2581Michigan": 2865, "\u2581enable": 2866, "\u2581meal": 2867, "\u2581visiting": 2868, "\u2581valuable": 2869, "\u2581perfectly": 2870, "\u2581consumer": 2871, "\u2581Finally": 2872, "\u2581purchased": 2873, "\u2581educational": 2874, "\u2581Asia": 2875, "\u2581Keep": 2876, "\u2581clinical": 2877, "\u2581bright": 2878, "\u2581fruit": 2879, "\u2581Medical": 2880, "\u2581expertise": 2881, "\u2581advertising": 2882, "\u2581movies": 2883, "\u2581causes": 2884, "\u2581drivers": 2885, "na": 2886, "\u2581Sometimes": 2887, "\u2581consumers": 2888, "\u2581cloud": 2889, "\u2581speech": 2890, "\u2581Using": 2891, "\u2581shooting": 2892, "\u2581Android": 2893, "\u2581rain": 2894, "not": 2895, "\u2581buildings": 2896, "\u2581commitment": 2897, "\u2581crime": 2898, "\u2581reliable": 2899, "\u2581teach": 2900, "\u2581Mexico": 2901, "\u2581supposed": 2902, "\u2581Angeles": 2903, "\u2581Plus": 2904, "\u2581g": 2905, "\u2581stars": 2906, "\u2581glad": 2907, "\u2581turns": 2908, "\u2581colour": 2909, "but": 2910, "\u2581surrounding": 2911, "\u2581happening": 2912, "\u2581portion": 2913, "\u2581formed": 2914, "\u2581chosen": 2915, "\u2581Media": 2916, "21": 2917, "\u2581accepted": 2918, "\u2581ring": 2919, "\u2581tells": 2920, "\u2581Times": 2921, "\u2581competitive": 2922, "\u2581surprise": 2923, "\u2581examples": 2924, "\u2581switch": 2925, "\u2581Care": 2926, "\u2581protein": 2927, "\u2581historical": 2928, "\u2581load": 2929, "\u2581Conference": 2930, "if": 2931, "\u2581survey": 2932, "\u2581mouth": 2933, "ism": 2934, "\u2581symptoms": 2935, "\u2581relatively": 2936, "\u2581smooth": 2937, "\u2581fields": 2938, "\u2581electronic": 2939, "\u2581providers": 2940, "\u2581replace": 2941, "\u2581rare": 2942, "\u2581resource": 2943, "22": 2944, "\u2581entirely": 2945, "\u2581resolution": 2946, "\u2581cutting": 2947, "\u2581flowers": 2948, "\u2581rating": 2949, "\u2581extensive": 2950, "\u2581Old": 2951, "\u2581Its": 2952, "\u2581assets": 2953, "\u2581infrastructure": 2954, "\u2581emotional": 2955, "\u2581usual": 2956, "\u2581shoes": 2957, "\u2581regularly": 2958, "\u2581incredible": 2959, "\u2581noticed": 2960, "\u2581candidates": 2961, "\u2581breakfast": 2962, "\u2581Martin": 2963, "\u2581camp": 2964, "do": 2965, "\u2581zone": 2966, "\u2581Lee": 2967, "\u2581delicious": 2968, "\u2581recovery": 2969, "\u2581kinds": 2970, "\u2581receiving": 2971, "\u2581truck": 2972, "\u2581matters": 2973, "\u2581Global": 2974, "\u2581feed": 2975, "\u2581w": 2976, "\u2581innovative": 2977, "\u2581Under": 2978, "\u2581begins": 2979, "\u2581Very": 2980, "\u2581engineering": 2981, "\u2581y": 2982, "\u2581register": 2983, "\u2581layer": 2984, "w": 2985, "\u2581Food": 2986, "\u2581settings": 2987, "\u2581Bar": 2988, "\u2581license": 2989, "\u2581Museum": 2990, "\u2581obvious": 2991, "\u2581accident": 2992, "\u2581represent": 2993, "\u2581f": 2994, "\u2581answers": 2995, "\u2581explained": 2996, "\u2581upper": 2997, "\u2581studio": 2998, "\u2581taught": 2999, "\u2581participate": 3000, "\u2581grew": 3001, "\u2581secret": 3002, "\u2581respond": 3003, "TM": 3004, "\u2581Award": 3005, "\u2581brands": 3006, "\u2581stick": 3007, "\u2581walked": 3008, "\u2581Despite": 3009, "\u2581arms": 3010, "\u2581presentation": 3011, "\u2581manufacturing": 3012, "\u2581walls": 3013, "\u2581Having": 3014, "\u2581agencies": 3015, "\u2581milk": 3016, "\u2581procedure": 3017, "\u2581suggested": 3018, "\u2581visual": 3019, "\u2581youth": 3020, "Y": 3021, "\u2581wild": 3022, "\u2581Back": 3023, "\u2581channel": 3024, "\u2581authority": 3025, "\u2581iPhone": 3026, "\u2581accurate": 3027, "\u2581fabric": 3028, "\u2581Grand": 3029, "\u2581criminal": 3030, "\u2581rental": 3031, "\u2581conducted": 3032, "\u2581CEO": 3033, "\u2581defined": 3034, "\u2581retail": 3035, "\u2581element": 3036, "\u25812003": 3037, "\u2581shower": 3038, "\u2581kill": 3039, "\u2581entered": 3040, "\u2581Sun": 3041, "\u2581apart": 3042, "\u2581guest": 3043, "\u2581identity": 3044, "\u2581Paris": 3045, "\u2581Series": 3046, "\u2581300": 3047, "\u2581signal": 3048, "\u2581border": 3049, "\u2581candidate": 3050, "\u2581dangerous": 3051, "\u2581Scott": 3052, "\u2581roof": 3053, "\u2581throw": 3054, "\u2581apps": 3055, "\u2581indeed": 3056, "\u2581farm": 3057, "\u2581replacement": 3058, "\u2581cycle": 3059, "\u2581passion": 3060, "\u2581circumstances": 3061, "\u2581topics": 3062, "\u2581citizens": 3063, "\u2581moments": 3064, "\u2581Hotel": 3065, "\u2581committee": 3066, "\u2581rent": 3067, "all": 3068, "\u2581grown": 3069, "so": 3070, "\u2581honest": 3071, "\u2581successfully": 3072, "\u2581holds": 3073, "He": 3074, "\u2581pet": 3075, "\u2581Mac": 3076, "\u2581instructions": 3077, "\u2581IN": 3078, "\u2581extended": 3079, "\u2581occur": 3080, "\u2581authorities": 3081, "\u2581messages": 3082, "\u2581none": 3083, "\u2581output": 3084, "01": 3085, "\u2581exam": 3086, "un": 3087, "If": 3088, "\u2581Therefore": 3089, "\u2581domestic": 3090, "\u2581Show": 3091, "\u2581reasonable": 3092, "\u2581regional": 3093, "\u2581believed": 3094, "\u2581clothes": 3095, "\u2581attacks": 3096, "\u2581restaurants": 3097, "\u2581constantly": 3098, "\u2581houses": 3099, "\u2581equal": 3100, "\u2581Right": 3101, "\u2581filed": 3102, "\u2581featured": 3103, "\u2581turning": 3104, "\u2581pack": 3105, "\u2581facing": 3106, "\u2581films": 3107, "\u2581river": 3108, "\u2581crisis": 3109, "\u2581ends": 3110, "\u2581painting": 3111, "45": 3112, "\u2581lighting": 3113, "\u2581confirmed": 3114, "\u2581spoke": 3115, "ic": 3116, "\u2581fellow": 3117, "\u2581counter": 3118, "\u2581frequently": 3119, "\u2581silver": 3120, "\u2581apartment": 3121, "\u2581scientific": 3122, "\u2581arm": 3123, "\u2581abuse": 3124, "What": 3125, "\u2581solar": 3126, "\u2581victory": 3127, "\u2581judge": 3128, "\u2581positions": 3129, "\u2581worst": 3130, "\u2581Market": 3131, "\u2581Federal": 3132, "\u2581cooking": 3133, "\u2581winner": 3134, "\u2581chicken": 3135, "\u2581Master": 3136, "\u2581plate": 3137, "\u2581phase": 3138, "\u2581losing": 3139, "\u2581aim": 3140, "\u2581crowd": 3141, "\u2581contemporary": 3142, "\u2581improvement": 3143, "\u2581league": 3144, "\u2581parent": 3145, "\u2581orders": 3146, "\u2581Italian": 3147, "\u2581El": 3148, "\u2581NOT": 3149, "\u2581chocolate": 3150, "\u2581Royal": 3151, "\u2581folks": 3152, "\u2581carefully": 3153, "\u2581fighting": 3154, "\u2581Richard": 3155, "\u2581quiet": 3156, "\u2581pulled": 3157, "\u2581patterns": 3158, "\u2581institutions": 3159, "land": 3160, "\u2581Johnson": 3161, "\u2581Contact": 3162, "net": 3163, "\u2581realized": 3164, "\u2581Joe": 3165, "\u2581Car": 3166, "\u2581nearby": 3167, "\u2581Yet": 3168, "\u2581unable": 3169, "\u2581scheduled": 3170, "\u2581motion": 3171, "\u2581liked": 3172, "\u2581Jack": 3173, "\u2581Children": 3174, "\u2581description": 3175, "\u2581guarantee": 3176, "\u2581domain": 3177, "\u2581capable": 3178, "\u2581Game": 3179, "\u2581efficiency": 3180, "\u2581upcoming": 3181, "\u2581researchers": 3182, "\u2581Network": 3183, "\u2581civil": 3184, "\u2581cat": 3185, "\u2581assessment": 3186, "\u2581worldwide": 3187, "\u2581cheese": 3188, "\u2581cup": 3189, "\u2581transport": 3190, "\u2581typical": 3191, "\u2581employment": 3192, "\u2581surprised": 3193, "\u2581salt": 3194, "\u2581organic": 3195, "\u2581Still": 3196, "\u2581Part": 3197, "\u2581appointment": 3198, "\u2581joint": 3199, "\u2581meat": 3200, "\u2581justice": 3201, "\u2581expectations": 3202, "\u2581degrees": 3203, "\u201c": 3204, "\u2581exact": 3205, "Z": 3206, "\u2581leather": 3207, "\u2581sat": 3208, "\u2581Review": 3209, "\u2581input": 3210, "\u2581impossible": 3211, "el": 3212, "\u2581payments": 3213, "\u2581registration": 3214, "\u2581soul": 3215, "\u2581Three": 3216, "\u2581Virginia": 3217, "\u2581seriously": 3218, "\u2581cake": 3219, "\u2581Donald": 3220, "\u2581kid": 3221, "\u2581Senate": 3222, "99": 3223, "\u2581stands": 3224, "\u2581external": 3225, "\u2581edition": 3226, "\u2581dropped": 3227, "\u2581scored": 3228, "\u2581exclusive": 3229, "\u2581mixed": 3230, "\u258148": 3231, "\u2581discussed": 3232, "\u2581ordered": 3233, "\u2581Chief": 3234, "\u2581Buy": 3235, "\u2581Energy": 3236, "\u2581yellow": 3237, "\u2581obtained": 3238, "\u2581threat": 3239, "\u2581impressive": 3240, "\u2581attorney": 3241, "\u2581Set": 3242, "\u2581medicine": 3243, "\u2581goods": 3244, "\u2581Learn": 3245, "\u2581Carolina": 3246, "\u2581fly": 3247, "\u2581procedures": 3248, "\u2581agents": 3249, "\u2581awareness": 3250, "te": 3251, "\u2581politics": 3252, "\u2581Jones": 3253, "\u2581hate": 3254, "\u2581Republican": 3255, "\u2581Though": 3256, "ville": 3257, "\u2581brown": 3258, "\u2581originally": 3259, "ar": 3260, "\u2581teeth": 3261, "\u2581tiny": 3262, "\u2581Academy": 3263, "\u2581recognized": 3264, "\u2581featuring": 3265, "\u2581trained": 3266, "\u2581hurt": 3267, "\u2581collect": 3268, "\u2581hire": 3269, "\u2581funny": 3270, "\u2581Ben": 3271, "\u2581possibility": 3272, "\u2581incident": 3273, "\u2581Arts": 3274, "\u2581tomorrow": 3275, "\u2581native": 3276, "\u2581informed": 3277, "\u2581sizes": 3278, "\u2581personally": 3279, "\u2581entertainment": 3280, "\u2581earn": 3281, "\u2581command": 3282, "\u2581searching": 3283, "\u2581Sea": 3284, "\u2581Wall": 3285, "\u2581crazy": 3286, "\u2581fairly": 3287, "\u2581Festival": 3288, "\u2581Unfortunately": 3289, "\u2581beer": 3290, "\u2581rear": 3291, "\u2581smile": 3292, "\u2581hoping": 3293, "\u2581sport": 3294, "\u2581earned": 3295, "\u2581objects": 3296, "\u2581ancient": 3297, "\u2581remote": 3298, "\u2581Steve": 3299, "\u2581foods": 3300, "\u2581loans": 3301, "see": 3302, "\u2581prove": 3303, "23": 3304, "\u2581hardware": 3305, "\u2581Full": 3306, "\u2581machines": 3307, "end": 3308, "\u2581talent": 3309, "ist": 3310, "\u2581Boston": 3311, "\u2581figures": 3312, "\u2581alcohol": 3313, "\u2581banks": 3314, "\u2581meetings": 3315, "\u2581ticket": 3316, "\u2581inspiration": 3317, "\u2581Photo": 3318, "\u2581Looking": 3319, "\u2581anyway": 3320, "ta": 3321, "\u2581aspect": 3322, "\u2581ongoing": 3323, "\u2581sessions": 3324, "\u2581mainly": 3325, "\u2581county": 3326, "\u2581favourite": 3327, "\u2581slowly": 3328, "\u2581represents": 3329, "\u2581returns": 3330, "\u2581privacy": 3331, "\u2581foundation": 3332, "\u2581crew": 3333, "\u2581discount": 3334, "\u2581situations": 3335, "son": 3336, "\u2581enhance": 3337, "\u2581appeal": 3338, "\u25812002": 3339, "\u2581Middle": 3340, "\u2581challenging": 3341, "ley": 3342, "\u2581everyday": 3343, "\u2581tasks": 3344, "\u2581supplies": 3345, "60": 3346, "\u2581Little": 3347, "\u2581Thus": 3348, "\u2581premium": 3349, "\u2581airport": 3350, "\u25812001": 3351, "\u2581Special": 3352, "\u2581regulations": 3353, "be": 3354, "\u2581operate": 3355, "\u2581Rock": 3356, "\u2581Second": 3357, "\u2581younger": 3358, "uk": 3359, "\u2581conduct": 3360, "\u2581submit": 3361, "\u2581bodies": 3362, "\u2581cute": 3363, "\u2581Watch": 3364, "\u2581Sam": 3365, "\u2581Spanish": 3366, "\u2581luxury": 3367, "\u2581reporting": 3368, "\u2581decade": 3369, "\u2581Fire": 3370, "\u2581Students": 3371, "\u258136": 3372, "\u2581outstanding": 3373, "\u2581nuclear": 3374, "\u2581Korea": 3375, "ity": 3376, "35": 3377, "\u2581dealing": 3378, "\u2581Library": 3379, "\u2581injuries": 3380, "\u2581CD": 3381, "\u2581Perhaps": 3382, "\u2581listening": 3383, "\u2581atmosphere": 3384, "\u2581west": 3385, "j": 3386, "\u2581Ireland": 3387, "\u2581View": 3388, "\u2581debate": 3389, "\u2581closely": 3390, "\u2581celebrate": 3391, "\u2581consistent": 3392, "\u2581taxes": 3393, "\u2581passing": 3394, "\u2581technique": 3395, "\u2581protected": 3396, "\u2581diverse": 3397, "\u2581somewhere": 3398, "\u2581joy": 3399, "\u2581interface": 3400, "\u2581History": 3401, "\u2581spiritual": 3402, "\u2581port": 3403, "\u2581Bible": 3404, "\u2581Un": 3405, "\u2581normally": 3406, "\u2581Human": 3407, "\u2581Manager": 3408, "\u2581differences": 3409, "mail": 3410, "\u2581skill": 3411, "\u2581saving": 3412, "\u2581Look": 3413, "\u2581intelligence": 3414, "\u2581Le": 3415, "\u2581vital": 3416, "\u2581Mar": 3417, "32": 3418, "\u2581sheet": 3419, "\u2581recognize": 3420, "\u2581magazine": 3421, "\u2581collected": 3422, "\u2581conflict": 3423, "\u2581ex": 3424, "\u2581keeps": 3425, "\u2581shift": 3426, "la": 3427, "\u2581cable": 3428, "\u2581Light": 3429, "\u2581musical": 3430, "\u2581Live": 3431, "\u2581Should": 3432, "he": 3433, "\u2581motor": 3434, "\u2581landscape": 3435, "\u2581template": 3436, "\u2581campus": 3437, "\u2581constant": 3438, "\u2581mountain": 3439, "\u2581trend": 3440, "\u2581increases": 3441, "\u2581serves": 3442, "\u2581describe": 3443, "\u2581lifestyle": 3444, "\u2581programme": 3445, "\u2581attended": 3446, "\u2581mail": 3447, "\u2581attached": 3448, "\u2581horse": 3449, "\u2581implementation": 3450, "\u2581visited": 3451, "go": 3452, "\u2581ultimately": 3453, "\u2581basically": 3454, "\u2581Such": 3455, "with": 3456, "\u2581tested": 3457, "\u2581log": 3458, "\u2581Plan": 3459, "\u2581Santa": 3460, "\u2581risks": 3461, "\u2581Justice": 3462, "\u2581neighborhood": 3463, "\u2581iron": 3464, "\u2581residential": 3465, "\u2581Work": 3466, "\u2581legs": 3467, "\u2581ease": 3468, "\u2581accessible": 3469, "\u2581immediate": 3470, "\u2581carbon": 3471, "\u2581engage": 3472, "\u2581replaced": 3473, "\u2581profit": 3474, "\u2581linked": 3475, "\u2581minor": 3476, "\u2581bottle": 3477, "\u2581relief": 3478, "\u2581Italy": 3479, "\u2581component": 3480, "\u2581saved": 3481, "\u2581authors": 3482, "\u2581pleased": 3483, "\u2581claimed": 3484, "\u2581organized": 3485, "\u2581resistance": 3486, "related": 3487, "\u2581obviously": 3488, "\u2581CA": 3489, "\u2581Out": 3490, "\u2581Britain": 3491, "\u2581Through": 3492, "\u2581neck": 3493, "\u2581chapter": 3494, "\u2581healthcare": 3495, "\u2581talks": 3496, "There": 3497, "\u2581struggle": 3498, "\u2581height": 3499, "\u2581resulting": 3500, "\u2581bowl": 3501, "\u2581estimated": 3502, "\u2581inches": 3503, "\u2581referred": 3504, "\u2581Hospital": 3505, "\u2581Code": 3506, "\u2581monitor": 3507, "\u2581destination": 3508, "\u2581generate": 3509, "\u2581brief": 3510, "\u2581Southern": 3511, "\u2581concrete": 3512, "\u2581innovation": 3513, "\u2581\u00a9": 3514, "\u2581Room": 3515, "\u2581OR": 3516, "\u2581garage": 3517, "\u2581Prime": 3518, "\u2581Charles": 3519, "\u2581default": 3520, "\u2581guidance": 3521, "\u2581networks": 3522, "\u2581adventure": 3523, "\u2581luck": 3524, "\u2581hosting": 3525, "\u2581yards": 3526, "\u2581letters": 3527, "\u2581Instagram": 3528, "\u2581integrated": 3529, "\u2581suffering": 3530, "\u2581partnership": 3531, "\u2581recording": 3532, "\u2581Control": 3533, "\u2581exposure": 3534, "\u2581watched": 3535, "\u2581Town": 3536, "\u2581chose": 3537, "\u2581widely": 3538, "\u2581tech": 3539, "\u2581leg": 3540, "\u2581Search": 3541, "\u258133": 3542, "\u2581millions": 3543, "\u2581promise": 3544, "\u2581stunning": 3545, "\u2581Young": 3546, "\u2581duty": 3547, "\u2581designer": 3548, "\u2581Would": 3549, "\u2581talked": 3550, "\u2581gifts": 3551, "\u2581mini": 3552, "\u2581reflect": 3553, "\u2581quote": 3554, "\u2581Being": 3555, "\u2581pm": 3556, "\u2581supports": 3557, "\u2581Jewish": 3558, "\u2581Play": 3559, "\u2581performing": 3560, "\u2581Ohio": 3561, "\u2581kit": 3562, "\u2581somewhat": 3563, "\u2581papers": 3564, "\u2581stood": 3565, "\u2581expand": 3566, "\u2581severe": 3567, "\u2581planet": 3568, "\u2581crucial": 3569, "\u2581invited": 3570, "\u2581lucky": 3571, "\u2581extent": 3572, "\u2581qualified": 3573, "\u2581Army": 3574, "\u2581streets": 3575, "\u2581primarily": 3576, "\u2581achieved": 3577, "200": 3578, "\u2581bridge": 3579, "\u2581Men": 3580, "\u2581hasn": 3581, "\u2581feelings": 3582, "\u2581chemical": 3583, "\u2581acid": 3584, "\u2581argument": 3585, "05": 3586, "\u2581jump": 3587, "\u258175": 3588, "\u2581rose": 3589, "\u2581Place": 3590, "\u2581monitoring": 3591, "\u2581soil": 3592, "\u2581fishing": 3593, "\u2581facts": 3594, "\u2581manufacturer": 3595, "\u2581trends": 3596, "\u2581https": 3597, "\u2581pan": 3598, "\u2581urban": 3599, "\u2581vast": 3600, "\u2581empty": 3601, "\u2581hundred": 3602, "os": 3603, "rs": 3604, "\u2581hidden": 3605, "you": 3606, "\u2581ages": 3607, "ra": 3608, "\u2581improving": 3609, "\u2581expressed": 3610, "\u2581east": 3611, "\u2581magic": 3612, "\u2581depth": 3613, "\u2581express": 3614, "ne": 3615, "\u2581noise": 3616, "\u2581Williams": 3617, "\u2581legislation": 3618, "\u2581Francisco": 3619, "\u2581lessons": 3620, "\u2581dates": 3621, "\u2581comparison": 3622, "\u2581percentage": 3623, "\u2581Small": 3624, "\u2581memories": 3625, "\u2581extension": 3626, "\u2581boost": 3627, "\u2581choosing": 3628, "\u2581forever": 3629, "\u2581scheme": 3630, "\u2581Digital": 3631, "\u2581savings": 3632, "\u2581capture": 3633, "\u2581solve": 3634, "\u2581increasingly": 3635, "\u2581u": 3636, "\u2581causing": 3637, "\u2581r": 3638, "\u2581clothing": 3639, "\u2581strategic": 3640, "\u2581prison": 3641, "\u2581collaboration": 3642, "\u2581drawing": 3643, "\u2581Jim": 3644, "\u2581approval": 3645, "\u2581bonus": 3646, "\u2581aside": 3647, "\u2581reputation": 3648, "\u2581contribute": 3649, "\u2581sending": 3650, "\u2581occurred": 3651, "\u2581writers": 3652, "\u2581transportation": 3653, "\u2581spaces": 3654, "\u2581directed": 3655, "\u2581compare": 3656, "\u2581desk": 3657, "\u2581broad": 3658, "\u2581shouldn": 3659, "\u2581suggests": 3660, "\u2581Spring": 3661, "\u2581Sports": 3662, "\u2581remained": 3663, "\u2581removal": 3664, "\u2581graduate": 3665, "\u2581reduction": 3666, "\u2581stuck": 3667, "27": 3668, "\u2581chat": 3669, "\u2581expenses": 3670, "\u2581split": 3671, "\u2581flexible": 3672, "\u2581vacation": 3673, "AP": 3674, "\u2581muscle": 3675, "\u2581thread": 3676, "\u2581labor": 3677, "\u2581ratio": 3678, "\u2581founded": 3679, "\u2581opposite": 3680, "\u2581weapons": 3681, "\u2581membership": 3682, "\u2581arts": 3683, "\u2581reader": 3684, "\u2581dynamic": 3685, "28": 3686, "\u2581versions": 3687, "\u2581reaction": 3688, "\u2581moves": 3689, "\u2581seats": 3690, "\u2581humans": 3691, "\u2581Ford": 3692, "\u2581hole": 3693, "\u2581festival": 3694, "\u2581potentially": 3695, "\u2581principles": 3696, "\u2581gallery": 3697, "\u2581engagement": 3698, "\u2581managing": 3699, "\u2581Iran": 3700, "\u2581illegal": 3701, "\u2581Price": 3702, "\u2581fail": 3703, "\u2581weekly": 3704, "\u2581Zealand": 3705, "\u2581virtual": 3706, "\u2581trail": 3707, "\u2581historic": 3708, "\u2581gear": 3709, "\u2581lawyer": 3710, "\u2581Northern": 3711, "\u2581cook": 3712, "\u2581bags": 3713, "\u2581generated": 3714, "level": 3715, "\u2581transition": 3716, "\u2581yard": 3717, "\u2581cookies": 3718, "\u2581manual": 3719, "\u2581Dan": 3720, "\u2581loves": 3721, "\u2581Matt": 3722, "\u2581mining": 3723, "No": 3724, "26": 3725, "\u2581alongside": 3726, "that": 3727, "\u2581largely": 3728, "\u2581Financial": 3729, "\u2581drinking": 3730, "\u2581anymore": 3731, "\u2581150": 3732, "\u2581contrast": 3733, "\u2581label": 3734, "\u2581observed": 3735, "\u2581fitness": 3736, "\u2581sorry": 3737, "\u2581tradition": 3738, "\u2581Coast": 3739, "\u2581arrested": 3740, "\u2581statements": 3741, "\u2581definition": 3742, "\u2581shots": 3743, "\u2581Jersey": 3744, "\u2581establish": 3745, "\u2581era": 3746, "\u2581permanent": 3747, "\u2581broke": 3748, "\u2581Welcome": 3749, "\u2581styles": 3750, "\u2581Table": 3751, "\u2581di": 3752, "\u2581arrive": 3753, "\u2581acting": 3754, "\u2581400": 3755, "\u2581sad": 3756, "\u2581pleasure": 3757, "\u2581engaged": 3758, "\u2581deck": 3759, "\u2581victims": 3760, "\u2581submitted": 3761, "\u2581alive": 3762, "\u2581headed": 3763, "\u2581carrying": 3764, "\u2581Local": 3765, "\u2581DC": 3766, "back": 3767, "\u25811990": 3768, "\u2581finance": 3769, "\u2581false": 3770, "\u2581Pacific": 3771, "\u2581weren": 3772, "\u2581YOU": 3773, "\u2581inner": 3774, "\u2581tip": 3775, "\u2581sauce": 3776, "\u2581Secretary": 3777, "\u2581relative": 3778, "\u2581printed": 3779, "\u2581Video": 3780, "\u2581architecture": 3781, "\u2581pink": 3782, "way": 3783, "\u2581logo": 3784, "\u2581doctors": 3785, "\u2581routine": 3786, "\u2581driven": 3787, "\u2581creates": 3788, "ch": 3789, "\u2581gender": 3790, "\u2581regions": 3791, "\u2581religion": 3792, "\u2581tight": 3793, "\u2581Executive": 3794, "\u2581controlled": 3795, "\u2581Head": 3796, "\u2581confident": 3797, "\u2581incredibly": 3798, "\u0435": 3799, "\u2581aircraft": 3800, "\u2581editor": 3801, "\u258134": 3802, "\u2581proposal": 3803, "\u2581Remember": 3804, "\u2581Ryan": 3805, "\u2581extreme": 3806, "\u2581h": 3807, "\u2581sick": 3808, "\u2581communications": 3809, "\u2581Pre": 3810, "\u2581dad": 3811, "\u2581Andrew": 3812, "\u2581proven": 3813, "\u2581adds": 3814, "\u2581believes": 3815, "\u2581valid": 3816, "\u2581pace": 3817, "\u2581electrical": 3818, "\u2581Games": 3819, "\u2581^": 3820, "\u2581necessarily": 3821, "\u2581preparation": 3822, "\u2581Division": 3823, "\u2581Report": 3824, "\u2581whenever": 3825, "\u2581honor": 3826, "\u2581afraid": 3827, "\u2581pure": 3828, "\u2581bread": 3829, "\u2581manufacturers": 3830, "me": 3831, "\u2581follows": 3832, "\u2581proof": 3833, "\u2581Ms": 3834, "\u2581continuing": 3835, "\u2581acts": 3836, "\u2581tank": 3837, "\u2581Clinton": 3838, "\u2581literally": 3839, "\u2581row": 3840, "\u2581shoot": 3841, "\u2581gorgeous": 3842, "\u2581posting": 3843, "\u2581structures": 3844, "\u2581filter": 3845, "\u2581AM": 3846, "\u2581Visit": 3847, "\u2581dollar": 3848, "\u2581involving": 3849, "\u2581expansion": 3850, "\u2581attractive": 3851, "\u2581firms": 3852, "\u2581plane": 3853, "\u2581Class": 3854, "\u2581Systems": 3855, "\u2581division": 3856, "\u2581enjoying": 3857, "\u2581Page": 3858, "\u2581grant": 3859, "\u2581FREE": 3860, "\u2581existence": 3861, "\u2581raw": 3862, "\u2581wheel": 3863, "\u2581awarded": 3864, "\u2581giant": 3865, "\u2581tracks": 3866, "\u2581forum": 3867, "\u2581Mrs": 3868, "\u2581golf": 3869, "house": 3870, "\u2581sand": 3871, "\u2581bear": 3872, "29": 3873, "\u2581convenient": 3874, "\u2581producing": 3875, "\u2581evil": 3876, "\u2581Bob": 3877, "\u2581ultimate": 3878, "\u2581twenty": 3879, "\u2581assume": 3880, "\u2581Catholic": 3881, "\u2581introduction": 3882, "\u2581shops": 3883, "\u2581index": 3884, "\u2581desired": 3885, "\u2581refer": 3886, "\u2581photography": 3887, "\u2581Try": 3888, "\u2581sustainable": 3889, "\u2581victim": 3890, "\u2581recommendations": 3891, "\u2581Auto": 3892, "\u2581regard": 3893, "\u2581samples": 3894, "\u2581Asian": 3895, "da": 3896, "\u2581lies": 3897, "\u2581depends": 3898, "\u2581neither": 3899, "\u2581apparently": 3900, "\u2581thick": 3901, "\u2581Dec": 3902, "\u2581faces": 3903, "\u2581matches": 3904, "\u2581Insurance": 3905, "\u2581Again": 3906, "\u2581sky": 3907, "\u2581Colorado": 3908, "\u2581amounts": 3909, "\u2581behalf": 3910, "\u2581zero": 3911, "\u2581coast": 3912, "\u2581household": 3913, "\u2581Professor": 3914, "\u2581equipped": 3915, "\u2581Happy": 3916, "\u2581joining": 3917, "\u2581ending": 3918, "\u2581Democratic": 3919, "\u2581king": 3920, "\u2581draft": 3921, "\u2581industries": 3922, "\u2581implement": 3923, "\u2581crusher": 3924, "\u2581till": 3925, "\u2581developers": 3926, "\u2581LLC": 3927, "\u2581falling": 3928, "ian": 3929, "\u2581roles": 3930, "\u2581minister": 3931, "\u2581Hope": 3932, "ies": 3933, "\u2581certified": 3934, "75": 3935, "\u2581covering": 3936, "\u2581consideration": 3937, "\u2581platforms": 3938, "\u2581reducing": 3939, "\u2581thin": 3940, "\u2581sight": 3941, "\u2581outcome": 3942, "\u2581tables": 3943, "\u2581Jackson": 3944, "\u2581hopes": 3945, "\u2581respectively": 3946, "\u2581Queen": 3947, "\u2581regardless": 3948, "\u2581literature": 3949, "\u2581everywhere": 3950, "\u2581rising": 3951, "\u2581heads": 3952, "\u2581Georgia": 3953, "my": 3954, "\u2581root": 3955, "\u2581workshop": 3956, "\u2581handling": 3957, "\u2581vary": 3958, "\u2581scientists": 3959, "\u2581involves": 3960, "\u2581stream": 3961, "\u2581boxes": 3962, "\u2581craft": 3963, "\u2581km": 3964, "\u2581concerning": 3965, "\u2581Area": 3966, "\u25811999": 3967, "\u2581dreams": 3968, "\u2581suddenly": 3969, "\u2581council": 3970, "\u2581Enjoy": 3971, "\u2581formal": 3972, "\u2581requested": 3973, "\u2581presents": 3974, "\u2581lay": 3975, "\u2581wealth": 3976, "\u2581meals": 3977, "\u2581CO": 3978, "\u2581visible": 3979, "\u2581eligible": 3980, "\u2581strange": 3981, "\u2581injured": 3982, "\u2581priority": 3983, "03": 3984, "\u2581healing": 3985, "\u2581careful": 3986, "\u2581butter": 3987, "\u2581debut": 3988, "\u2581IP": 3989, "\u2581drawn": 3990, "\u2581Mobile": 3991, "men": 3992, "\u2581portfolio": 3993, "\u2581recognition": 3994, "\u2581bunch": 3995, "\u2581bath": 3996, "\u2581YouTube": 3997, "\u2581stored": 3998, "\u2581relations": 3999, "\u2581limits": 4000, "\u2581Toronto": 4001, "\u2581categories": 4002, "\u2581consumption": 4003, "\u2581Come": 4004, "\u2581Night": 4005, "\u2581persons": 4006, "\u2581OK": 4007, "80": 4008, "\u2581newly": 4009, "\u2581elected": 4010, "\u2581breaking": 4011, "\u2581Engineering": 4012, "\u2581sensitive": 4013, "\u2581micro": 4014, "\u2581framework": 4015, "\u2581wire": 4016, "\u2581guidelines": 4017, "\u2581blocks": 4018, "\u2581Kim": 4019, "\u2581Holy": 4020, "\u2581flying": 4021, "\u2581string": 4022, "\u2581tonight": 4023, "\u2581Nov": 4024, "\u2581mixture": 4025, "\u2581enterprise": 4026, "\u2581electricity": 4027, "\u2581murder": 4028, "\u2581Trust": 4029, "\u2581offices": 4030, "\u2581Without": 4031, "\u2581Force": 4032, "\u2581accessories": 4033, "\u2581association": 4034, "\u2581Supreme": 4035, "\u2581Van": 4036, "\u2581stable": 4037, "\u2581inch": 4038, "\u2581understood": 4039, "\u2581cap": 4040, "\u2581invest": 4041, "\u2581Everyone": 4042, "\u2581Guide": 4043, "ca": 4044, "\u2581Was": 4045, "\u2581escape": 4046, "\u2581chart": 4047, "\u2581rice": 4048, "\u2581Section": 4049, "\u2581programming": 4050, "\u2581heading": 4051, "<": 4052, "\u2581bills": 4053, "\u2581forest": 4054, "\u2581HD": 4055, "\u2581mg": 4056, "\u2581dental": 4057, "\u2581occasion": 4058, "\u2581Wood": 4059, "\u2581Joseph": 4060, "\u2581preferred": 4061, "\u2581exposed": 4062, "\u2581tone": 4063, "\u2581naturally": 4064, "\u2581Join": 4065, "\u2581guitar": 4066, "\u2581Kingdom": 4067, "\u2581permission": 4068, "\u2581hits": 4069, "\u2581capabilities": 4070, "\u2581anxiety": 4071, "\u2581Spirit": 4072, "\u2581pounds": 4073, "\u2581Site": 4074, "\u2581van": 4075, "um": 4076, "\u2581Order": 4077, "\u2581rid": 4078, "\u2581awards": 4079, "\u2581stronger": 4080, "\u2581Additionally": 4081, "\u2581Jr": 4082, "\u2581personality": 4083, "\u2581storm": 4084, "\u2581Feb": 4085, "\u2581containing": 4086, "\u2581Following": 4087, "\u2581slot": 4088, "\u2581Store": 4089, "Q": 4090, "\u2581consists": 4091, "\u2581suffered": 4092, "\u2581array": 4093, "\u2581random": 4094, "\u2581tournament": 4095, "\u2581afford": 4096, "\u2581accused": 4097, "\u2581Building": 4098, "\u2581commonly": 4099, "\u2581harder": 4100, "\u2581transaction": 4101, "\u2581staying": 4102, "\u2581shoulder": 4103, "\u2581specialist": 4104, "\u2581communicate": 4105, "\u2581viewed": 4106, "\u2581Land": 4107, "90": 4108, "\u2581birds": 4109, "\u2581objective": 4110, "\u2581tired": 4111, "\u2581oven": 4112, "\u2581Daniel": 4113, "\u2581initially": 4114, "\u2581requests": 4115, "\u2581Daily": 4116, "\u2581connections": 4117, "ling": 4118, "\u2581usage": 4119, "\u2581functional": 4120, "\u2581Adam": 4121, "\u2581laid": 4122, "\u2581closing": 4123, "\u2581bars": 4124, "\u2581enforcement": 4125, "\u2581granted": 4126, "\u2581rural": 4127, "\u2581gotten": 4128, "\u2581suspect": 4129, "\u2581dish": 4130, "\u2581faced": 4131, "\u2581liquid": 4132, "\u2581indicate": 4133, "\u2581Meanwhile": 4134, "\u2581Copyright": 4135, "\u2581Spain": 4136, "\u2581printing": 4137, "\u2581findings": 4138, "\u2581Irish": 4139, "\u2581Shop": 4140, "\u2581killing": 4141, "\u2581latter": 4142, "\u2581chances": 4143, "\u2581kick": 4144, "\u2581requirement": 4145, "\u2581Pakistan": 4146, "ma": 4147, "\u2581suggestions": 4148, "\u2581tag": 4149, "\u2581Living": 4150, "\u2581semi": 4151, "\u2581treatments": 4152, "\u2581whilst": 4153, "\u2581professor": 4154, "\u2581checking": 4155, "\u2581publication": 4156, "\u2581explains": 4157, "\u2581marks": 4158, "02": 4159, "\u2581displayed": 4160, "\u2581channels": 4161, "\u2581Summer": 4162, "\u2581complicated": 4163, "\u2581wooden": 4164, "\u2581represented": 4165, "\u2581Henry": 4166, "\u2581eggs": 4167, "\u2581lift": 4168, "\u2581warning": 4169, "\u2581availability": 4170, "\u2581swimming": 4171, "\u2581sufficient": 4172, "\u2581opposition": 4173, "\u2581Start": 4174, "\u2581unknown": 4175, "\u2581grand": 4176, "\u2581Support": 4177, "\u2581lesson": 4178, "\u2581gained": 4179, "\u2581tall": 4180, "\u2581retirement": 4181, "\u2581Studies": 4182, "per": 4183, "\u2581breath": 4184, "\u2581Tim": 4185, "\u2581password": 4186, "\u2581App": 4187, "\u2581controls": 4188, "\u2581edit": 4189, "\u2581applicable": 4190, "well": 4191, "\u2581upgrade": 4192, "They": 4193, "\u2581Word": 4194, "\u2581wave": 4195, "\u2581contained": 4196, "\u2581superior": 4197, "\u2581Rights": 4198, "\u2581Taylor": 4199, "\u2581compliance": 4200, "\u2581tissue": 4201, "\u2581Training": 4202, "\u2581Democrats": 4203, "\u2581Space": 4204, "\u2581Republic": 4205, "\u2581Four": 4206, "\u2581pot": 4207, "\u2581trash": 4208, "\u2581Bush": 4209, "\u2581hell": 4210, "\u2581Him": 4211, "\u2581concepts": 4212, "\u2581strongly": 4213, "\u2581ad": 4214, "\u2581Garden": 4215, "\u2581hotels": 4216, "\u2581stayed": 4217, "\u2581purchasing": 4218, "\u2581k": 4219, "side": 4220, "\u2581sought": 4221, "\u2581Oct": 4222, "\u258138": 4223, "\u2581Fox": 4224, "\u2581subjects": 4225, "\u2581Rose": 4226, "\u258142": 4227, "\u2581prime": 4228, "\u2581returning": 4229, "31": 4230, "\u2581factory": 4231, "\u2581Stone": 4232, "\u2581\u00b7": 4233, "\u2581shut": 4234, "\u2581marked": 4235, "\u2581loving": 4236, "\u2581DNA": 4237, "field": 4238, "\u2581recipes": 4239, "\u2581approaches": 4240, "\u2581Cross": 4241, "\u2581hadn": 4242, "\u2581forth": 4243, "\u2581powder": 4244, "\u25811980": 4245, "\u2581exhibition": 4246, "\u2581resume": 4247, "\u2581fifth": 4248, "\u258137": 4249, "\u2581consequences": 4250, "\u2581Fund": 4251, "\u2581mortgage": 4252, "\u2581diseases": 4253, "ka": 4254, "\u2581Mountain": 4255, "\u2581gap": 4256, "\u2581pointed": 4257, "\u2581classroom": 4258, "\u2581calendar": 4259, "\u2581pricing": 4260, "\u2581encouraged": 4261, "\u2581IS": 4262, "And": 4263, "\u2581deeply": 4264, "\u2581wanting": 4265, "\u2581Disney": 4266, "\u2581managers": 4267, "\u2581guard": 4268, "\u2581brilliant": 4269, "\u2581traveling": 4270, "\u2581ceremony": 4271, "ED": 4272, "\u2581mistake": 4273, "\u2581Radio": 4274, "\u2581greatly": 4275, "\u2581strike": 4276, "\u258139": 4277, "\u2581plot": 4278, "\u2581Frank": 4279, "\u2581ads": 4280, "\u2581demands": 4281, "\u2581wondering": 4282, "\u2581Alex": 4283, "\u2581favor": 4284, "70": 4285, "\u25811998": 4286, "age": 4287, "My": 4288, "\u2581riding": 4289, "\u2581representative": 4290, "\u2581evaluation": 4291, "\u2581enables": 4292, "\u2581everybody": 4293, "\u2581checked": 4294, "\u2581Greek": 4295, "\u2581rely": 4296, "\u2581army": 4297, "\u2581downtown": 4298, "friendly": 4299, "\u258155": 4300, "\u2581equivalent": 4301, "\u2581wake": 4302, "\u2581entering": 4303, "including": 4304, "\u2581Based": 4305, "\u2581stretch": 4306, "\u2581entrance": 4307, "\u2581newspaper": 4308, "\u2581Marketing": 4309, "\u2581maintaining": 4310, "\u2581breast": 4311, "\u2581belief": 4312, "\u2581southern": 4313, "\u2581currency": 4314, "\u2581FOR": 4315, "\u2581temporary": 4316, "\u2581hanging": 4317, "\u2581Brian": 4318, "\u2581mile": 4319, "300": 4320, "\u2581codes": 4321, "\u2581hosted": 4322, "\u2581setup": 4323, "\u2581Arizona": 4324, "\u2581crash": 4325, "\u258165": 4326, "\u2581compensation": 4327, "\u2581script": 4328, "\u2581faculty": 4329, "\u2581roads": 4330, "\u2581colleagues": 4331, "\u2581Steel": 4332, "\u2581lock": 4333, "\u2581secondary": 4334, "\u2581lie": 4335, "\u2581Week": 4336, "\u2581correctly": 4337, "\u2581outcomes": 4338, "\u2581earnings": 4339, "\u2581shirt": 4340, "\u2581sections": 4341, "\u2581bone": 4342, "\u2581NFL": 4343, "\u2581Louis": 4344, "\u2581studied": 4345, "\u2581pocket": 4346, "\u2581adopted": 4347, "\u2581merely": 4348, "\u2581SEO": 4349, "\u2581Software": 4350, "\u2581participation": 4351, "\u2581admit": 4352, "\u2581deposit": 4353, "\u2581contest": 4354, "\u2581Father": 4355, "\u2581Eastern": 4356, "ry": 4357, "\u2581Golden": 4358, "\u2581thousand": 4359, "\u2581ensuring": 4360, "\u2581criteria": 4361, "\u2581Kevin": 4362, "\u2581Corporation": 4363, "ally": 4364, "04": 4365, "\u2581Oil": 4366, "\u2581studying": 4367, "\u2581appointed": 4368, "\u2581absolute": 4369, "\u2581maintained": 4370, "\u2581tagged": 4371, "\u2581exists": 4372, "\u2581scenes": 4373, "\u2581guilty": 4374, "\u2581somehow": 4375, "\u2581dust": 4376, "\u2581specified": 4377, "\u2581sentence": 4378, "em": 4379, "quality": 4380, "\u2581venue": 4381, "\u2581elections": 4382, "\u2581ocean": 4383, "\u2581Hot": 4384, "\u2581okay": 4385, "\u2581reveal": 4386, "\u2581illness": 4387, "\u2581extend": 4388, "\u2581attitude": 4389, "\u2581Modern": 4390, "\u2581initiative": 4391, "\u2581Houston": 4392, "\u2581spots": 4393, "\u2581acquired": 4394, "\u2581reaching": 4395, "\u2581lady": 4396, "\u2581characteristics": 4397, "\u2581voters": 4398, "\u2581depression": 4399, "\u2581Point": 4400, "\u2581assigned": 4401, "\u2581j": 4402, "\u2581wins": 4403, "\u2581blend": 4404, "\u2581Want": 4405, "\u2581childhood": 4406, "\u2581occurs": 4407, "\u2581Singapore": 4408, "\u2581integration": 4409, "down": 4410, "\u2581laptop": 4411, "\u2581Avenue": 4412, "\u2581NY": 4413, "\u2581wireless": 4414, "\u2581pride": 4415, "\u2581graphics": 4416, "\u2581volunteers": 4417, "\u2581decent": 4418, "\u2581museum": 4419, "\u2581Airport": 4420, "\u2581lake": 4421, "\u2581applying": 4422, "\u2581phones": 4423, "\u2581Policy": 4424, "08": 4425, "\u2581preparing": 4426, "\u2581harm": 4427, "\u2581fundamental": 4428, "\u2581hang": 4429, "\u2581concert": 4430, "\u2581indicated": 4431, "\u2581Test": 4432, "\u2581satisfaction": 4433, "\u2581Vegas": 4434, "\u2581actor": 4435, "\u2581frequency": 4436, "ner": 4437, "\u2581union": 4438, "\u2581Image": 4439, "\u2581entitled": 4440, "her": 4441, "\u2581PDF": 4442, "\u2581mm": 4443, "\u2581drinks": 4444, "\u2581personnel": 4445, "\u2581stages": 4446, "\u2581deeper": 4447, "\u2581lowest": 4448, "\u2581estimate": 4449, "\u2581Harry": 4450, "\u2581equally": 4451, "\u2581Scotland": 4452, "\u2581raising": 4453, "\u2581ceiling": 4454, "\u2581orange": 4455, "http": 4456, "95": 4457, "\u2581chest": 4458, "\u2581speaker": 4459, "\u2581stations": 4460, "\u2581attempts": 4461, "\u2581tracking": 4462, "\u2581cuts": 4463, "\u2581Ideas": 4464, "\u2581smoke": 4465, "\u2581Agency": 4466, "\u2581Silver": 4467, "\u2581Hollywood": 4468, "\u2581Help": 4469, "\u2581Max": 4470, "\u2581Everything": 4471, "\u2581bond": 4472, "\u2581packed": 4473, "\u2581egg": 4474, "\u2581Capital": 4475, "\u2581buyers": 4476, "\u2581rapidly": 4477, "class": 4478, "ING": 4479, "\u2581Administration": 4480, "\u2581flavor": 4481, "\u2581gaming": 4482, "\u2581interaction": 4483, "\u2581arrival": 4484, "wood": 4485, "\u2581lifetime": 4486, "\u2581pp": 4487, "\u2581Card": 4488, "\u2581Line": 4489, "\u2581Senior": 4490, "\u2581Professional": 4491, "\u2581suffer": 4492, "\u2581poker": 4493, "\u2581western": 4494, "\u2581farmers": 4495, "\u2581infection": 4496, "\u2581Port": 4497, "\u2581holidays": 4498, "\u2581scores": 4499, "\u2581scope": 4500, "\u2581MP": 4501, "li": 4502, "\u2581essentially": 4503, "\u2581errors": 4504, "09": 4505, "\u2581introduce": 4506, "\u2581packages": 4507, "\u2581que": 4508, "\u2581Step": 4509, "\u2581organisation": 4510, "\u2581pushed": 4511, "led": 4512, "\u2581residence": 4513, "\u2581damaged": 4514, "\u2581worried": 4515, "\u2581Iraq": 4516, "\u2581centers": 4517, "\u2581opposed": 4518, "\u2581asset": 4519, "\u2581mirror": 4520, "\u2581unusual": 4521, "\u2581drama": 4522, "\u2581bird": 4523, "\u2581insight": 4524, "That": 4525, "\u2581resort": 4526, "\u2581Drive": 4527, "\u2581improvements": 4528, "\u2581Awards": 4529, "\u2581assistant": 4530, "\u2581mood": 4531, "io": 4532, "\u2581conclusion": 4533, "\u2581contribution": 4534, "\u2581lists": 4535, "\u2581seasons": 4536, "\u2581Sarah": 4537, "\u2581lens": 4538, "\u2581heating": 4539, "\u2581viewing": 4540, "\u2581trips": 4541, "\u2581focusing": 4542, "\u2581struck": 4543, "\u2581Among": 4544, "\u2581Quality": 4545, "\u2581LED": 4546, "\u2581column": 4547, "\u2581emails": 4548, "\u2581pump": 4549, "\u2581tie": 4550, "\u2581exceptional": 4551, "\u2581Roman": 4552, "q": 4553, "\u2581Medicine": 4554, "\u2581Yeah": 4555, "\u2581prayer": 4556, "\u2581se": 4557, "\u2581beneficial": 4558, "06": 4559, "\u2581USB": 4560, "\u2581PA": 4561, "\u2581philosophy": 4562, "\u2581gene": 4563, "\u2581licensed": 4564, "\u2581cabinet": 4565, "\u2581quotes": 4566, "\u2581filling": 4567, "\u2581weak": 4568, "\u2581Film": 4569, "\u2581northern": 4570, "\u2581arrangements": 4571, "ment": 4572, "\u2581lets": 4573, "\u2581vegetables": 4574, "\u2581Ministry": 4575, "\u2581container": 4576, "\u2581automatic": 4577, "\u2581define": 4578, "\u2581implemented": 4579, "\u2581telephone": 4580, "\u2581clock": 4581, "2018": 4582, "\u2581Need": 4583, "\u2581grab": 4584, "\u2581Sydney": 4585, "\u2581letting": 4586, "\u2581peak": 4587, "\u2581grateful": 4588, "\u2581module": 4589, "\u2581Tour": 4590, "\u2581narrow": 4591, "\u2581confirm": 4592, "ion": 4593, "long": 4594, "\u2581delay": 4595, "\u2581elegant": 4596, "\u2581prize": 4597, "\u2581reserved": 4598, "\u2581vintage": 4599, "over": 4600, "\u2581survive": 4601, "style": 4602, "\u2581diversity": 4603, "\u258164": 4604, "\u2581heavily": 4605, "\u2581Way": 4606, "\u2581dishes": 4607, "\u2581certificate": 4608, "\u2581substantial": 4609, "\u2581sharp": 4610, "\u2581flower": 4611, "36": 4612, "\u2581Natural": 4613, "\u2581liability": 4614, "ish": 4615, "\u2581branch": 4616, "\u2581attending": 4617, "\u2581Miami": 4618, "\u2581employer": 4619, "\u2581struggling": 4620, "\u2581booking": 4621, "\u2581satisfied": 4622, "\u2581Key": 4623, "\u2581vice": 4624, "\u2581consent": 4625, "\u2581photographs": 4626, "\u2581Safety": 4627, "\u2581basketball": 4628, "33": 4629, "\u2581celebration": 4630, "\u2581Country": 4631, "ation": 4632, "\u2581Officer": 4633, "\u2581edited": 4634, "\u2581addresses": 4635, "\u2581con": 4636, "\u2581seed": 4637, "\u2581Has": 4638, "\u2581%": 4639, "\u2581Illinois": 4640, "\u2581Square": 4641, "\u2581titles": 4642, "\u2581ill": 4643, "\u2581statistics": 4644, "\u2581Am": 4645, "\u2581emotions": 4646, "\u2581UN": 4647, "\u2581enemy": 4648, "07": 4649, "\u2581combine": 4650, "\u2581relax": 4651, "\u2581relation": 4652, "\u2581Las": 4653, "\u2581chairs": 4654, "\u25811997": 4655, "\u2581loose": 4656, "\u2581nights": 4657, "\u2581Jeff": 4658, "\u2581computers": 4659, "\u2581universe": 4660, "\u2581transmission": 4661, "\u2581fits": 4662, "\u2581anniversary": 4663, "\u2581accordance": 4664, "\u2581Save": 4665, "ized": 4666, "\u2581Think": 4667, "\u2581Station": 4668, "\u2581intense": 4669, "\u2581Due": 4670, "\u2581distinct": 4671, "\u2581racing": 4672, "use": 4673, "\u2581NO": 4674, "\u2581demonstrate": 4675, "\u2581Furthermore": 4676, "\u2581listing": 4677, "\u2581rarely": 4678, "\u2581losses": 4679, "\u2581decline": 4680, "\u25811970": 4681, "\u2581Moreover": 4682, "\u2581formula": 4683, "\u2581Pass": 4684, "\u2581wash": 4685, "\u2581engaging": 4686, "\u2581completion": 4687, "\u2581pitch": 4688, "\u2581transactions": 4689, "\u2581Davis": 4690, "\u258149": 4691, "\u2581Prince": 4692, "\u2581focuses": 4693, "\u2581meets": 4694, "\u2581languages": 4695, "\u2581Chapter": 4696, "\u2581Several": 4697, "\u2581promotion": 4698, "\u2581Kitchen": 4699, "\u2581targeted": 4700, "\u2581List": 4701, "point": 4702, "\u2581aims": 4703, "\u2581exception": 4704, "\u2581consultation": 4705, "\u2581nations": 4706, "\u2581Trade": 4707, "\u2581suppliers": 4708, "\u2581layout": 4709, "\u2581Machine": 4710, "\u2581generic": 4711, "ko": 4712, "\u2581opinions": 4713, "\u2581Access": 4714, "\u2581Smart": 4715, "\u2581institution": 4716, "But": 4717, "\u2581Non": 4718, "\u2581instant": 4719, "\u2581officially": 4720, "\u2581resident": 4721, "\u2581HP": 4722, "55": 4723, "\u2581speakers": 4724, "\u2581employed": 4725, "\u2581Miller": 4726, "\u2581Made": 4727, "\u2581Ed": 4728, "\u2581utility": 4729, "\u2581Off": 4730, "\u2581yoga": 4731, "\u2581powers": 4732, "\u2581gay": 4733, "\u2581founder": 4734, "\u2581Learning": 4735, "\u2581exploring": 4736, "\u2581falls": 4737, "\u2581highlight": 4738, "\u2581Fort": 4739, "\u2581surely": 4740, "\u2581alleged": 4741, "\u2581interactive": 4742, "\u2581temperatures": 4743, "\u2581painted": 4744, "\u2581Korean": 4745, "ya": 4746, "\u2581tape": 4747, "known": 4748, "\u2581Jordan": 4749, "\u00e2": 4750, "\u2581hat": 4751, "\u2581nose": 4752, "\u2581configuration": 4753, "\u2581compete": 4754, "more": 4755, "\u20ac": 4756, "ur": 4757, "\u2581finds": 4758, "ro": 4759, "\u2581fiction": 4760, "\u2581aged": 4761, "\u2581juice": 4762, "\u2581moral": 4763, "\u2581danger": 4764, "id": 4765, "\u2581Nick": 4766, "\u2581signature": 4767, "\u2581combat": 4768, "\u2581intellectual": 4769, "\u2581pilot": 4770, "\u2581soldiers": 4771, "\u2581Estate": 4772, "\u25811996": 4773, "\u2581Main": 4774, "34": 4775, "\u2581proved": 4776, "\u2581Stephen": 4777, "\u2581Wilson": 4778, "\u2581III": 4779, "\u2581Republicans": 4780, "\u2581Creek": 4781, "\u2581contributions": 4782, "\u2581fewer": 4783, "\u2581medication": 4784, "\u2581Muslim": 4785, "\u2581targets": 4786, "\u2581hall": 4787, "\u2581delivering": 4788, "\u2581cotton": 4789, "\u2581sequence": 4790, "\u2581volunteer": 4791, "\u2581functionality": 4792, "\u2581Sign": 4793, "\u2581aimed": 4794, "\u2581tons": 4795, "\u2581versus": 4796, "\u2581ban": 4797, "cm": 4798, "\u2581Seattle": 4799, "\u2581contracts": 4800, "\u2581Much": 4801, "\u2581Website": 4802, "\u2581Turkey": 4803, "\u2581singer": 4804, "\u2581circle": 4805, "\u2581reply": 4806, "\u2581grass": 4807, "\u258144": 4808, "\u2581~": 4809, "\u2581permit": 4810, "\u2581120": 4811, "\u2581panels": 4812, "\u2581investments": 4813, "\u2581Rs": 4814, "\u2581accuracy": 4815, "\u2581colours": 4816, "\u2581rapid": 4817, "\u2581promoting": 4818, "\u2581stability": 4819, "ization": 4820, "hour": 4821, "\u2581Working": 4822, "\u2581circuit": 4823, "\u2581engines": 4824, "\u2581Kong": 4825, "\u2581Syria": 4826, "\u2581plain": 4827, "\u2581flexibility": 4828, "new": 4829, "\u2581pregnancy": 4830, "\u2581cameras": 4831, "\u2581viagra": 4832, "life": 4833, "\u2581producer": 4834, "800": 4835, "\u2581measured": 4836, "\u2581seeds": 4837, "\u2581terrible": 4838, "\u2581resulted": 4839, "ni": 4840, "\u2018": 4841, "\u2581charity": 4842, "\u2581decrease": 4843, "\u2581formation": 4844, "\u2581declared": 4845, "\u2581announcement": 4846, "\u2581calm": 4847, "\u2581Model": 4848, "\u2581segment": 4849, "\u2581singing": 4850, "\u2581guaranteed": 4851, "\u2581Never": 4852, "\u2581OS": 4853, "\u2581immigration": 4854, "\u2581inform": 4855, "\u2581elsewhere": 4856, "\u2581Dave": 4857, "\u2581ownership": 4858, "\u2581Elizabeth": 4859, "\u2581excess": 4860, "\u2581boss": 4861, "\u2581flag": 4862, "\u2581genuine": 4863, "\u2581bid": 4864, "\u2581DVD": 4865, "\u2581mechanism": 4866, "\u2581accommodation": 4867, "\u2581Eric": 4868, "\u2581sleeping": 4869, "\u2581pregnant": 4870, "\u2581conventional": 4871, "\u2581solo": 4872, "|": 4873, "\u2581mill": 4874, "\u2581Nothing": 4875, "\u2581assembly": 4876, "\u2581Columbia": 4877, "\u2581equity": 4878, "\u2581Miss": 4879, "\u2581holes": 4880, "\u2581journal": 4881, "\u258195": 4882, "\u2581describes": 4883, "\u2581Limited": 4884, "\u2581250": 4885, "\u2581operated": 4886, "\u2581Jason": 4887, "\u2581divided": 4888, "\u2581dual": 4889, "\u2581End": 4890, "\u2581principal": 4891, "\u2581sin": 4892, "\u2581Box": 4893, "\u2581visits": 4894, "400": 4895, "\u2581copies": 4896, "\u2581Give": 4897, "making": 4898, "\u2581Product": 4899, "\u2581Credit": 4900, "\u2581emerging": 4901, "\u2581carpet": 4902, "\u2581amongst": 4903, "\u2581convenience": 4904, "\u2581Civil": 4905, "\u2581designers": 4906, "\u2581certification": 4907, "\u2581Sale": 4908, "\u2581periods": 4909, "\u2581involve": 4910, "\u2581Hong": 4911, "\u2581coat": 4912, "\u2581talented": 4913, "\u2581Travel": 4914, "\u2581skilled": 4915, "ey": 4916, "\u2581ear": 4917, "\u2581pushing": 4918, "\u2581Tony": 4919, "\u2581participating": 4920, "38": 4921, "\u2581golden": 4922, "\u2581mistakes": 4923, "\u2581ALL": 4924, "\u2581Samsung": 4925, "\u2581weird": 4926, "\u2581Standard": 4927, "\u2581distributed": 4928, "\u2581Victoria": 4929, "\u2581expanded": 4930, "\u2581belt": 4931, "\u2581responses": 4932, "\u2581Pennsylvania": 4933, "\u2581Tech": 4934, "\u2581bound": 4935, "\u2581Oklahoma": 4936, "\u2581commission": 4937, "\u2581abilities": 4938, "\u2581Theatre": 4939, "\u2581contributed": 4940, "\u2581Diego": 4941, "\u2581Saint": 4942, "\u2581voted": 4943, "39": 4944, "\u2581Agreement": 4945, "\u2581tied": 4946, "\u2581Minnesota": 4947, "\u2581fired": 4948, "\u2581coal": 4949, "\u2581Products": 4950, "\u2581answered": 4951, "\u2581chronic": 4952, "\u2581captured": 4953, "ah": 4954, "\u2581Available": 4955, "\u2581denied": 4956, "\u2581performances": 4957, "\u2581Sir": 4958, "\u2581Low": 4959, "\u2581laugh": 4960, "\u2581discussions": 4961, "\u2581Kelly": 4962, "\u2581ought": 4963, "\u2581principle": 4964, "\u2581hopefully": 4965, "\u2581attract": 4966, "\u2581puts": 4967, "\u2581broadcast": 4968, "\u2581ministry": 4969, "\u2581experiment": 4970, "au": 4971, "\u2581Annual": 4972, "\u2581interviews": 4973, "\u2581layers": 4974, "\u2581directions": 4975, "\u2581overnight": 4976, "\u2581refused": 4977, "\u2581explanation": 4978, "\u2581impressed": 4979, "\u2581difficulty": 4980, "\u2581graphic": 4981, "\u2581gym": 4982, "\u2581respective": 4983, "\u2581smell": 4984, "\u25811000": 4985, "\u2581clubs": 4986, "\u25811995": 4987, "\u2581Below": 4988, "\u2581Choose": 4989, "\u2581subsequent": 4990, "mg": 4991, "\u2581rolling": 4992, "\u2581Aug": 4993, "\u2581signing": 4994, "\u2581picking": 4995, "\u2581Latin": 4996, "GB": 4997, "\u2581passes": 4998, "art": 4999, "\u2581baseball": 5000, "\u2581accounting": 5001, "\u2581icon": 5002, "\u2581Austin": 5003, "\u2581Type": 5004, "\u2581encounter": 5005, "\u2581tab": 5006, "\u2581addressed": 5007, "\u2581regulatory": 5008, "\u2581admitted": 5009, "\u2581developer": 5010, "\u2581settlement": 5011, "\u2581pursue": 5012, "\u2581overcome": 5013, "\u2581continuous": 5014, "\u2581lab": 5015, "\u2581Islamic": 5016, "\u2581Winter": 5017, "\u2581Heart": 5018, "\u2581importantly": 5019, "\u2581presidential": 5020, "\u2581hide": 5021, "\u2581Manchester": 5022, "\u2581creativity": 5023, "\u2581adjust": 5024, "\u2581opens": 5025, "\u2581absence": 5026, "\u2581Follow": 5027, "\u2581responded": 5028, "made": 5029, "\u2581Customer": 5030, "\u2581tube": 5031, "\u2581grey": 5032, "\u2581coaching": 5033, "\u2581smartphone": 5034, "\u2581impression": 5035, "\u2581cm": 5036, "\u2581mountains": 5037, "\u2581relating": 5038, "\u2581Kids": 5039, "\u2581diabetes": 5040, "\u2581conversion": 5041, "\u2581laser": 5042, "inch": 5043, "\u2581safely": 5044, "\u2581abroad": 5045, "\u2581evolution": 5046, "\u2581Could": 5047, "\u2581provision": 5048, "\u2581mess": 5049, "\u2581expense": 5050, "When": 5051, "\u2581somebody": 5052, "\u2581wet": 5053, "\u2581modified": 5054, "\u2581examination": 5055, "\u2581gathered": 5056, "\u2581rough": 5057, "\u2581destroyed": 5058, "\u2581angle": 5059, "\u2581copyright": 5060, "\u2581maps": 5061, "\u2581invite": 5062, "\u2581brush": 5063, "\u2581packaging": 5064, "\u2581Things": 5065, "\u2581drove": 5066, "\u2581ON": 5067, "\u258152": 5068, "\u2581disaster": 5069, "\u25812020": 5070, "\u2581regulation": 5071, "\u2581Change": 5072, "\u2581consistently": 5073, "\u2581der": 5074, "\u2581odd": 5075, "\u2581venture": 5076, "\u2581reform": 5077, "\u2581finishing": 5078, "\u2581Sorry": 5079, "\u2581Philadelphia": 5080, "\u2581Village": 5081, "\u2581governments": 5082, "\u2581fake": 5083, "\u2581Easy": 5084, "\u2581Action": 5085, "\u2581boards": 5086, "\u2581Lady": 5087, "\u2581fingers": 5088, "\u2581Forest": 5089, "\u2581highlights": 5090, "\u2581brothers": 5091, "\u2581estimates": 5092, "et": 5093, "\u2581bands": 5094, "\u2581inter": 5095, "\u2581bench": 5096, "\u2581scenario": 5097, "ter": 5098, "\u2581Fair": 5099, "\u2581Atlanta": 5100, "\u2581themes": 5101, "\u2581cheaper": 5102, "\u2581Personal": 5103, "star": 5104, "\u2581examine": 5105, "\u2581passionate": 5106, "\u2581behaviour": 5107, "\u2581hiring": 5108, "\u2581Mount": 5109, "\u2581composition": 5110, "\u2581ordinary": 5111, "\u2581Bridge": 5112, "\u2581shortly": 5113, "\u2581800": 5114, "\u2581Kansas": 5115, "\u2581happiness": 5116, "from": 5117, "\u2581argue": 5118, "\u2581roots": 5119, "\u2581depend": 5120, "\u2581dose": 5121, "\u2581Studio": 5122, "\u2581barely": 5123, "\u2581Patrick": 5124, "\u2581votes": 5125, "\u2581sole": 5126, "\u2581burning": 5127, "\u2581instrument": 5128, "\u2581baking": 5129, "\u2581flash": 5130, "\u2581trusted": 5131, "\u2581finger": 5132, "ier": 5133, "\u2581burn": 5134, "\u2581agenda": 5135, "\u2581wisdom": 5136, "\u2581shock": 5137, "\u2581matching": 5138, "\u258141": 5139, "\u2581eliminate": 5140, "\u2581fault": 5141, "\u2581complaint": 5142, "\u2581announce": 5143, "\u2581Oregon": 5144, "\u2581wheels": 5145, "\u2581applies": 5146, "\u2581voting": 5147, "\u2581resolve": 5148, "\u2581babies": 5149, "\u2581acquire": 5150, "\u2581retired": 5151, "ine": 5152, "44": 5153, "\u2581decor": 5154, "\u2581insights": 5155, "\u2581gonna": 5156, "\u2581banking": 5157, "\u2581warranty": 5158, "\u2581diagnosis": 5159, "\u2581instruments": 5160, "\u2581representing": 5161, "\u2581und": 5162, "\u2581Description": 5163, "\u2581Ray": 5164, "\u2581dramatic": 5165, "\u2581Age": 5166, "ri": 5167, "\u2581Dark": 5168, "town": 5169, "\u2581ranging": 5170, "\u2581settled": 5171, "\u2581promised": 5172, "\u2581el": 5173, "\u2581Exchange": 5174, "To": 5175, "\u2581Sales": 5176, "\u2581texture": 5177, "\u2581inventory": 5178, "\u2581_": 5179, "\u2581Dallas": 5180, "\u2581flights": 5181, "\u2581substance": 5182, "se": 5183, "\u2581poverty": 5184, "\u2581sensor": 5185, "\u2581pray": 5186, "\u2581Ontario": 5187, "\u2581knee": 5188, "\u2581Mother": 5189, "\u2581representation": 5190, "ler": 5191, "\u258143": 5192, "\u2581desktop": 5193, "\u2581stocks": 5194, "\u2581Gallery": 5195, "\u2581penalty": 5196, "\u2581gather": 5197, "\u2581finest": 5198, "\u2581surrounded": 5199, "\u2581Select": 5200, "lin": 5201, "\u2581territory": 5202, "For": 5203, "\u2581repeat": 5204, "\u2581discovery": 5205, "di": 5206, "\u2581Posted": 5207, "\u2581Jews": 5208, "\u2581wider": 5209, "\u2581acquisition": 5210, "49": 5211, "\u2581hardly": 5212, "\u2581evaluate": 5213, "site": 5214, "\u2581assess": 5215, "\u2581Besides": 5216, "\u2581hearts": 5217, "\u2581parameters": 5218, "\u2581concentration": 5219, "\u2581unlikely": 5220, "\u2581initiatives": 5221, "\u2581meaningful": 5222, "\u2581courts": 5223, "\u2581clicking": 5224, "\u2581globe": 5225, "\u2581wise": 5226, "\u2581gathering": 5227, "\u2581advantages": 5228, "\u258199": 5229, "\u2581whereas": 5230, "\u2581employers": 5231, "\u2581Baby": 5232, "\u2581muscles": 5233, "\u2581Within": 5234, "\u2581supporters": 5235, "\u2581signals": 5236, "\u2581Figure": 5237, "\u2581remarkable": 5238, "\u2581servers": 5239, "\u2581LA": 5240, "\u2581grounds": 5241, "\u2581trailer": 5242, "\u2581recall": 5243, "\u2581visitor": 5244, "\u2581oral": 5245, "\u2581fabulous": 5246, "\u2581movements": 5247, "\u2581campaigns": 5248, "\u2581scoring": 5249, "\u2581universities": 5250, "As": 5251, "\u2581experiencing": 5252, "\u2581representatives": 5253, "\u2581Create": 5254, "How": 5255, "\u2581Moon": 5256, "\u2581reserve": 5257, "\u2581keys": 5258, "\u2581Casino": 5259, "est": 5260, "\u2581frequent": 5261, "\u2581Cloud": 5262, "\u2581survival": 5263, "\u2581nursing": 5264, "\u2581documentation": 5265, "\u2581tap": 5266, "\u2581prescription": 5267, "\u2581Early": 5268, "\u2581lawyers": 5269, "\u2581constructed": 5270, "\u2581deserve": 5271, "\u2581Per": 5272, "\u2581narrative": 5273, "So": 5274, "\u2581rated": 5275, "\u2581witness": 5276, "\u2581mouse": 5277, "\u2581Brazil": 5278, "\u2581moon": 5279, "\u2581stainless": 5280, "\u2581fluid": 5281, "\u2581Computer": 5282, "\u2581romantic": 5283, "\u2581hitting": 5284, "\u2581instantly": 5285, "\u2581Sky": 5286, "\u2581Bell": 5287, "\u2581roughly": 5288, "\u2581editing": 5289, "\u2581removing": 5290, "\u2581math": 5291, "\u2581assault": 5292, "\u2581organisations": 5293, "\u2581actively": 5294, "\u2581demonstrated": 5295, "\u2581breaks": 5296, "\u2581Nations": 5297, "\u2581Field": 5298, "\u25811994": 5299, "\u2581precious": 5300, "\u2581Vice": 5301, "\u2581MS": 5302, "month": 5303, "42": 5304, "\u2581possibilities": 5305, "\u2581blame": 5306, "\u2581Student": 5307, "\u2581workshops": 5308, "\u2581displays": 5309, "\u2581summary": 5310, "\u2581duties": 5311, "\u2581investing": 5312, "called": 5313, "\u2581Mill": 5314, "\u2581reverse": 5315, "\u2581Retrieved": 5316, "\u2581Saudi": 5317, "\u2581BBC": 5318, "\u2581worship": 5319, "\u2581loud": 5320, "\u2581workplace": 5321, "\u2581Member": 5322, "\u2581exit": 5323, "\u2581arrest": 5324, "\u2581virtually": 5325, "\u2581Five": 5326, "\u2581Currently": 5327, "\u2581drives": 5328, "\u2581Members": 5329, "\u2581fraud": 5330, "\u2581Israeli": 5331, "\u2581worn": 5332, "\u2581600": 5333, "\u2581repairs": 5334, "\u2581sofa": 5335, "\u2581virus": 5336, "\u2581cats": 5337, "\u2581convert": 5338, "\u2581Private": 5339, "\u2581makeup": 5340, "\u2581Protection": 5341, "\u2581environments": 5342, "this": 5343, "\u2581indicates": 5344, "\u2581objectives": 5345, "\u2581Anyone": 5346, "\u2581Really": 5347, "\u2581curious": 5348, "\u2581minimal": 5349, "\u2581vulnerable": 5350, "\u2581conversations": 5351, "\u2581le": 5352, "\u2581offensive": 5353, "48": 5354, "\u2581angry": 5355, "\u25811960": 5356, "\u2581waves": 5357, "\u2581unlike": 5358, "ft": 5359, "\u2581weapon": 5360, "\u2581variable": 5361, "\u2581productivity": 5362, "\u2581Camp": 5363, "\u2581tries": 5364, "\u2581Hello": 5365, "\u2581\u00bb": 5366, "\u2581prominent": 5367, "\u2581grace": 5368, "\u2581minds": 5369, "ha": 5370, "\u2581instruction": 5371, "\u2581Story": 5372, "\u2581investigate": 5373, "\u2581hip": 5374, "\u2581blow": 5375, "\u2581succeed": 5376, "\u2581conservative": 5377, "\u2581appreciated": 5378, "\u2581stomach": 5379, "\u2581pleasant": 5380, "\u2581supplier": 5381, "\u2581restrictions": 5382, "\u2581reviewed": 5383, "\u2581quantity": 5384, "\u2581des": 5385, "\u2581del": 5386, "\u2581asks": 5387, "\u2581Hey": 5388, "\u2581operational": 5389, "\u2581judgment": 5390, "\u2581Further": 5391, "\u2581origin": 5392, "\u2581threats": 5393, "\u2581passengers": 5394, "\u2581horses": 5395, "Re": 5396, "\u2581MA": 5397, "\u2581massage": 5398, "don": 5399, "\u2581nobody": 5400, "\u2581mechanical": 5401, "\u2581cooperation": 5402, "\u2581newsletter": 5403, "\u258146": 5404, "\u2581Blog": 5405, "\u2581troops": 5406, "\u2581worker": 5407, "\u2581Ball": 5408, "\u2581generations": 5409, "\u2581Beautiful": 5410, "\u2581administrative": 5411, "\u2581champion": 5412, "\u2581artistic": 5413, "\u2581Simply": 5414, "izing": 5415, "\u2581Collection": 5416, "\u2581coloring": 5417, "\u2581Attorney": 5418, "\u2581hunting": 5419, "\u2581physically": 5420, "\u2581actors": 5421, "37": 5422, "\u2581pin": 5423, "\u2581Lewis": 5424, "\u2581du": 5425, "\u2581defeat": 5426, "\u2581ruling": 5427, "\u2581involvement": 5428, "\u258101": 5429, "\u2581fascinating": 5430, "\u2581invention": 5431, "\u2581rescue": 5432, "\u2581symbol": 5433, "\u2581publicly": 5434, "bit": 5435, "\u2581rubber": 5436, "\u2581Simon": 5437, "\u2581Express": 5438, "\u2581publishing": 5439, "\u2581plug": 5440, "\u2581dozen": 5441, "\u2581Finance": 5442, "\u2581iPad": 5443, "\u2581defensive": 5444, "\u2581Name": 5445, "\u2581jewelry": 5446, "\u2581Nature": 5447, "ke": 5448, "\u2581wishes": 5449, "\u2581Memorial": 5450, "\u2581Edition": 5451, "\u2581AT": 5452, "\u2581Christians": 5453, "\u2581marijuana": 5454, "\u2581winners": 5455, "\u2581heritage": 5456, "US": 5457, "\u2581hired": 5458, "`": 5459, "\u2581Farm": 5460, "\u2581restore": 5461, "\u2581recover": 5462, "foot": 5463, "\u2581Money": 5464, "\u2581spin": 5465, "American": 5466, "\u2581athletes": 5467, "\u2581durable": 5468, "\u2581enhanced": 5469, "\u2581thinks": 5470, "\u2581transformation": 5471, "\u2581sink": 5472, "\u2581utilize": 5473, "\u2581Given": 5474, "\u2581profits": 5475, "\u2581immune": 5476, "minute": 5477, "\u2581accommodate": 5478, "\u2581exercises": 5479, "\u2581portable": 5480, "\u2581Allen": 5481, "\u2581pdf": 5482, "\u2581reception": 5483, "\u2581Later": 5484, "\u2581Tax": 5485, "il": 5486, "\u2581forecast": 5487, "\u2581salary": 5488, "\u2581indoor": 5489, "\u2581nervous": 5490, "\u2581Study": 5491, "\u2581Unlike": 5492, "\u2581translation": 5493, "\u2581toys": 5494, "\u2581pipe": 5495, "\u2581rank": 5496, "\u2581sum": 5497, "\u2581Mass": 5498, "\u2581contents": 5499, "\u2581writes": 5500, "\u2581tablet": 5501, "\u2581gate": 5502, "\u2581pen": 5503, "\u2581stylish": 5504, "\u2581reward": 5505, "\u2581logic": 5506, "\u2581Delhi": 5507, "\u2581divorce": 5508, "\u2581WordPress": 5509, "\u2581Books": 5510, "\u2581inspection": 5511, "\u2581ships": 5512, "\u2581ft": 5513, "\u2581directory": 5514, "\u2581opt": 5515, "\u2581Ann": 5516, "\u2581province": 5517, "\u2581Navy": 5518, "\u2581backup": 5519, "\u2581thoroughly": 5520, "\u2581folder": 5521, "\u2581ok": 5522, "\u2581networking": 5523, "\u2581hosts": 5524, "\u2581sorts": 5525, "\u2581Perfect": 5526, "\u2581Economic": 5527, "\u2581lying": 5528, "\u2581authentic": 5529, "\u2581tears": 5530, "\u2581trigger": 5531, "\u2581provisions": 5532, "\u2581possession": 5533, "\u2581subscription": 5534, "\u2581fiber": 5535, "\u2581AI": 5536, "\u2581Run": 5537, "\u2581floors": 5538, "\u2581templates": 5539, "\u2581Solutions": 5540, "\u2581duration": 5541, "\u2581artificial": 5542, "\u2581ratings": 5543, "\u2581genetic": 5544, "\u2581iOS": 5545, "\u2581curriculum": 5546, "box": 5547, "\u2581cart": 5548, "\u2581Premier": 5549, "\u2581comedy": 5550, "\u2581intention": 5551, "\u2581locally": 5552, "\u2581integrity": 5553, "\u2581bug": 5554, "\u2581unexpected": 5555, "\u2581collective": 5556, "\u2581apparent": 5557, "\u2581Sure": 5558, "\u2581Championship": 5559, "\u2581emphasis": 5560, "\u2581Server": 5561, "\u2581publish": 5562, "head": 5563, "\u2581loaded": 5564, "\u2581beds": 5565, "\u2581bacteria": 5566, "\u2581extraordinary": 5567, "\u2581Li": 5568, "\u2581exterior": 5569, "\u2581Number": 5570, "run": 5571, "\u2581Wisconsin": 5572, "\u2581spectacular": 5573, "\u2581tackle": 5574, "\u2581Egypt": 5575, "den": 5576, "\u2581ladies": 5577, "\u2581Share": 5578, "\u2581Overall": 5579, "\u2581meters": 5580, "\u2581screening": 5581, "\u2581protecting": 5582, "\u2581Wales": 5583, "\u2581underlying": 5584, "\u2581Ten": 5585, "\u2581occasionally": 5586, "\u2581dirt": 5587, "ate": 5588, "\u2581regime": 5589, "\u2581suite": 5590, "\u2581blogs": 5591, "\u2581Always": 5592, "\u2581Magazine": 5593, "64": 5594, "\u2581defend": 5595, "\u2581Construction": 5596, "\u2581Anyway": 5597, "\u2581Ocean": 5598, "\u2581Anderson": 5599, "\u2581enabled": 5600, "\u2581patio": 5601, "\u2581intervention": 5602, "\u2581oldest": 5603, "\u2581disorder": 5604, "ti": 5605, "\u2581Ask": 5606, "\u2581Analysis": 5607, "how": 5608, "scale": 5609, "\u2581Cancer": 5610, "\u2581processed": 5611, "\u2581races": 5612, "profit": 5613, "\u2581smoking": 5614, "\u2581sheets": 5615, "\u2581tile": 5616, "\u2581interact": 5617, "\u2581Bio": 5618, "\u2581scan": 5619, "\u2581landing": 5620, "\u258147": 5621, "\u2581dialogue": 5622, "\u2581spoken": 5623, "\u2581Experience": 5624, "\u2581shade": 5625, "\u2581followers": 5626, "\u2581rail": 5627, "\u2581compatible": 5628, "\u2581attempted": 5629, "\u2581Nice": 5630, "\u2581NEW": 5631, "\u2581slide": 5632, "\u2581mystery": 5633, "\u2581walks": 5634, "\u2581balanced": 5635, "\u2581binary": 5636, "\u2581Atlantic": 5637, "\u2581aggressive": 5638, "\u2581stops": 5639, "\u2581produces": 5640, "\u2581celebrated": 5641, "\u2581buyer": 5642, "\u2581analysts": 5643, "\u2581confused": 5644, "\u2581yield": 5645, "\u2581fiscal": 5646, "\u2581expanding": 5647, "\u2581Industry": 5648, "\u2581sees": 5649, "\u2581casual": 5650, "\u2581photographer": 5651, "\u2581armed": 5652, "\u2581hero": 5653, "ting": 5654, "\u2581trials": 5655, "\u2581spare": 5656, "\u2581Self": 5657, "\u2581occasions": 5658, "\u2581engineers": 5659, "\u2581beautifully": 5660, "\u2581operator": 5661, "\u2581Orange": 5662, "\u2581connecting": 5663, "hand": 5664, "\u2581Level": 5665, "\u2581ranked": 5666, "2017": 5667, "\u2581Enter": 5668, "\u2581thrown": 5669, "\u2581Stock": 5670, "\u2581transferred": 5671, "\u2581Matthew": 5672, "\u2581designing": 5673, "\u2581differently": 5674, "\u2581User": 5675, "\u2581Child": 5676, "\u2581habits": 5677, "\u2581neutral": 5678, "\u2581Mom": 5679, "\u2581Color": 5680, "\u2581Vietnam": 5681, "\u2581powered": 5682, "\u2581Large": 5683, "\u2581Halloween": 5684, "\u2581emissions": 5685, "\u2581encouraging": 5686, "\u2581situated": 5687, "\u2581Sen": 5688, "\u2581Put": 5689, "\u2581ignore": 5690, "\u2581beliefs": 5691, "\u2581supplied": 5692, "\u2581anger": 5693, "\u2581spray": 5694, "\u2581transform": 5695, "\u2581pizza": 5696, "law": 5697, "\u2581Wild": 5698, "con": 5699, "\u2581fallen": 5700, "\u2581surprising": 5701, "\u2581Mini": 5702, "\u2581timing": 5703, "\u2581franchise": 5704, "\u2581workout": 5705, "\u2581newest": 5706, "\u2581Massachusetts": 5707, "\u2581coupon": 5708, "\u2581Moore": 5709, "who": 5710, "\u2581Paper": 5711, "winning": 5712, "\u2581mounted": 5713, "\u2581cooked": 5714, "\u2581toilet": 5715, "\u2581sing": 5716, "\u2581Season": 5717, "46": 5718, "\u2581min": 5719, "ham": 5720, "\u2581Wi": 5721, "\u2581Fall": 5722, "\u2581Anthony": 5723, "\u2581Classic": 5724, "\u2581Too": 5725, "\u2581advised": 5726, "\u2581Detroit": 5727, "\u2581arrangement": 5728, "\u2581shapes": 5729, "tech": 5730, "\u2581flour": 5731, "\u2581Environmental": 5732, "\u2581financing": 5733, "\u2581dancing": 5734, "home": 5735, "\u2581Application": 5736, "All": 5737, "\u2581fantasy": 5738, "\u2581facilitate": 5739, "\u25811993": 5740, "\u2581phrase": 5741, "\u258185": 5742, "\u2581Melbourne": 5743, "\u2581stupid": 5744, "\u2581copper": 5745, "\u2581Wow": 5746, "\u2581hospitals": 5747, "\u2581delete": 5748, "book": 5749, "ty": 5750, "\u2581jail": 5751, "\u2581swing": 5752, "47": 5753, "\u2581references": 5754, "\u2581figured": 5755, "\u2581uk": 5756, "\u2581Nigeria": 5757, "\u2581sectors": 5758, "\u2581Cape": 5759, "\u258172": 5760, "\u2581offense": 5761, "\u25811992": 5762, "\u2581Dog": 5763, "\u2581Indiana": 5764, "\u2581graduated": 5765, "\u2581regards": 5766, "\u2581destroy": 5767, "\u2581Linux": 5768, "\u2581productive": 5769, "\u2581Regional": 5770, "\u2581cruise": 5771, "\u2581competitors": 5772, "\u2581gentle": 5773, "\u2581universal": 5774, "\u2581Major": 5775, "\u2581outfit": 5776, "\u2581anybody": 5777, "\u2581Parliament": 5778, "\u2581accomplish": 5779, "\u2581Foreign": 5780, "\u2581corn": 5781, "mo": 5782, "\u2581hill": 5783, "\u2581chemicals": 5784, "\u2581releases": 5785, "\u2581corresponding": 5786, "\u2581placing": 5787, "\u2581compact": 5788, "\u2581adoption": 5789, "\u2581Authority": 5790, "\u2581violent": 5791, "\u2581legacy": 5792, "\u2581fence": 5793, "\u2581Morgan": 5794, "\u2581MD": 5795, "\u2581jacket": 5796, "ray": 5797, "\u2581Sept": 5798, "\u2581dependent": 5799, "\u2581locked": 5800, "\u2581carrier": 5801, "\u2581pets": 5802, "\u2581Indeed": 5803, "\u2581API": 5804, "\u2581wildlife": 5805, "\u2581likes": 5806, "\u2581Jane": 5807, "\u2581Advanced": 5808, "\u2581criticism": 5809, "59": 5810, "\u2581damages": 5811, "\u2581Forum": 5812, "\u2581Size": 5813, "\u2581expecting": 5814, "\u2581wrap": 5815, "\u2581AC": 5816, "\u2581completing": 5817, "\u2581producers": 5818, "\u2581bold": 5819, "\u2581Band": 5820, "\u2581guns": 5821, "\u2581settle": 5822, "\u2581begun": 5823, "\u2581Assembly": 5824, "\u2581Content": 5825, "\u2581salad": 5826, "\u2581suppose": 5827, "\u2581vertical": 5828, "\u2581Iowa": 5829, "\u2581spectrum": 5830, "\u2581Sciences": 5831, "\u2581loop": 5832, "600": 5833, "\u2581collections": 5834, "\u2581Maryland": 5835, "world": 5836, "\u2581politicians": 5837, "\u2581chips": 5838, "\u2581bass": 5839, "\u2581interactions": 5840, "\u2581sophisticated": 5841, "\u2581Berlin": 5842, "\u2581refers": 5843, "\u2581boots": 5844, "\u2581Making": 5845, "\u2581comic": 5846, "\u2581solely": 5847, "43": 5848, "\u2581specialized": 5849, "\u2581complaints": 5850, "\u2581Cook": 5851, "\u2581Third": 5852, "\u2581Cambridge": 5853, "\u2581Captain": 5854, "\u2581Iron": 5855, "\u2581adequate": 5856, "\u2581crimes": 5857, "\u00e9": 5858, "\u2581Case": 5859, "\u2581glasses": 5860, "\u2581blind": 5861, "\u2581Dutch": 5862, "fi": 5863, "\u2581excitement": 5864, "\u2581da": 5865, "\u2581Golf": 5866, "\u2581knife": 5867, "\u2581parks": 5868, "\u2581vendors": 5869, "\u2581acceptable": 5870, "\u2581generous": 5871, "\u2581shaped": 5872, "\u2581Judge": 5873, "\u2581Fast": 5874, "\u2581intent": 5875, "\u2581deaths": 5876, "\u2581Mo": 5877, "\u2581Alexander": 5878, "ize": 5879, "\u2581Sound": 5880, "\u2581theatre": 5881, "\u2581handy": 5882, "\u2581pepper": 5883, "\u2581Mexican": 5884, "\u2581Net": 5885, "\u2581delivers": 5886, "\u2581entity": 5887, "\u2581foam": 5888, "\u2581commit": 5889, "\u2581capability": 5890, "\u2581rolled": 5891, "\u2581upload": 5892, "\u2581disappointed": 5893, "\u2581PS": 5894, "\u2581establishment": 5895, "\u2581enjoyable": 5896, "\u2581boot": 5897, "\u2581Stay": 5898, "\u2581robust": 5899, "ng": 5900, "\u2581Howard": 5901, "\u2581tours": 5902, "\u2581popularity": 5903, "\u2581Anti": 5904, "\u2581discounts": 5905, "\u2581bulk": 5906, "\u2581Body": 5907, "\u2581developments": 5908, "\u2581Glass": 5909, "\u2581Writing": 5910, "\u2581declined": 5911, "\u2581accomplished": 5912, "\u2581Creative": 5913, "\u2581piano": 5914, "\u2581difficulties": 5915, "\u2581Death": 5916, "\u2581streaming": 5917, "\u2581SO": 5918, "\u2581Ken": 5919, "41": 5920, "\u2581stopping": 5921, "\u2581Jay": 5922, "\u2581promises": 5923, "\u2581Getting": 5924, "\u2581filing": 5925, "\u2581convinced": 5926, "\u2581lasting": 5927, "\u2581Governor": 5928, "\u2581flooring": 5929, "\u2581tension": 5930, "\u2581Assistant": 5931, "\u2581designated": 5932, "\u2581protest": 5933, "\u2581handed": 5934, "\u2581Girl": 5935, "ite": 5936, "\u2581prevention": 5937, "\u2581execution": 5938, "\u2581feeding": 5939, "\u2581heaven": 5940, "\u2581preserve": 5941, "bar": 5942, "\u2581exclusively": 5943, "\u2581enormous": 5944, "\u2581beef": 5945, "\u258151": 5946, "\u2581fruits": 5947, "game": 5948, "she": 5949, "\u2581identification": 5950, "\u2581overseas": 5951, "\u2581ultra": 5952, "\u2581True": 5953, "\u2581episodes": 5954, "\u2581aluminum": 5955, "\u2581repeated": 5956, "\u2581forgotten": 5957, "\u2581Down": 5958, "\u2581Tree": 5959, "\u2581operates": 5960, "\u2581admission": 5961, "\u2581backed": 5962, "\u2581churches": 5963, "\u2581precise": 5964, "\u2581disorders": 5965, "\u2581Industrial": 5966, "type": 5967, "\u2581Double": 5968, "\u2581upset": 5969, "\u2581lawsuit": 5970, "\u2581horror": 5971, "right": 5972, "\u2581god": 5973, "\u2581paintings": 5974, "ant": 5975, "\u2581specialists": 5976, "\u2581artwork": 5977, "\u2581Ever": 5978, "\u2581interpretation": 5979, "\u2581Bowl": 5980, "\u2581clip": 5981, "\u2581Youth": 5982, "\u2581deadline": 5983, "\u2581inspire": 5984, "\u2581Defense": 5985, "\u2581theater": 5986, "\u2581Football": 5987, "\u2581concluded": 5988, "\u2581Pay": 5989, "\u2581bio": 5990, "car": 5991, "\u2581garbage": 5992, "\u2581Short": 5993, "\u2581odds": 5994, "\u2581FBI": 5995, "\u2581speaks": 5996, "\u2581suicide": 5997, "\u2581Olympic": 5998, "\u2581trick": 5999, "\u2581diagram": 6000, "\u2581veteran": 6001, "\u2581Alabama": 6002, "\u2581entertaining": 6003, "\u2581washing": 6004, "\u2581detection": 6005, "\u2581overview": 6006, "\u2581Form": 6007, "\u2581considerable": 6008, "\u0430": 6009, "\u2581warned": 6010, "\u2581funded": 6011, "\u2581pulling": 6012, "ul": 6013, "ba": 6014, "\u2581badly": 6015, "\u2581Rome": 6016, "\u2581chairman": 6017, "\u2581sudden": 6018, "\u2581gray": 6019, "\u2581Grant": 6020, "\u2581export": 6021, "\u2581entries": 6022, "\u2581Mayor": 6023, "ge": 6024, "\u2581arguments": 6025, "date": 6026, "\u2581checks": 6027, "\u2581accompanied": 6028, "52": 6029, "\u2581poetry": 6030, "\u2581steady": 6031, "\u2581purchases": 6032, "\u2581junior": 6033, "\u2581assured": 6034, "\u2581ties": 6035, "\u2581relaxing": 6036, "\u2581locate": 6037, "\u2581apple": 6038, "\u2581gains": 6039, "\u2581passenger": 6040, "\u2581structural": 6041, "\u2581directors": 6042, "\u2581climb": 6043, "\u2581retain": 6044, "work": 6045, "\u2581parallel": 6046, "\u2581par": 6047, "\u2581nutrition": 6048, "\u2581rush": 6049, "\u2581secured": 6050, "\u2581Clark": 6051, "\u2581dressed": 6052, "\u2581democracy": 6053, "\u2581Resources": 6054, "\u2581photograph": 6055, "\u2581Win": 6056, "\u2581composed": 6057, "\u2581En": 6058, "\u2581edges": 6059, "\u2581bedrooms": 6060, "\u2581Oxford": 6061, "\u2581Cat": 6062, "\u2581ears": 6063, "53": 6064, "\u2581Edward": 6065, "\u2581responsibilities": 6066, "\u2581Multi": 6067, "\u2581navigate": 6068, "\u2581attempting": 6069, "\u258154": 6070, "\u2581Corp": 6071, "\u2581acres": 6072, "\u2581associate": 6073, "ce": 6074, "\u2581Plant": 6075, "\u2581rejected": 6076, "\u2581Property": 6077, "let": 6078, "\u2581Chair": 6079, "\u2581cry": 6080, "\u25811991": 6081, "\u2581Son": 6082, "\u2581HIV": 6083, "\u2581steam": 6084, "\u2581neighbors": 6085, "\u2581throwing": 6086, "\u2581caring": 6087, "\u2581Ross": 6088, "\u2581Ave": 6089, "\u2581Total": 6090, "\u2581Whatever": 6091, "\u2581contractor": 6092, "\u2581Along": 6093, "\u2581Job": 6094, "\u2581Tell": 6095, "\u2581slight": 6096, "\u2581Bureau": 6097, "\u2581Anna": 6098, "\u2581cooling": 6099, "\u2581operators": 6100, "\u2581efficiently": 6101, "\u2581nurse": 6102, "65": 6103, "\u2581championship": 6104, "\u2581Jean": 6105, "\u2581breathing": 6106, "born": 6107, "\u2581balls": 6108, "\u2581patch": 6109, "Fi": 6110, "\u2581lease": 6111, "\u2581Channel": 6112, "\u2581satellite": 6113, "\u2581printer": 6114, "\u2581Prior": 6115, "\u2581measurement": 6116, "\u2581permitted": 6117, "\u2581qualify": 6118, "\u2581valued": 6119, "\u2581sits": 6120, "\u2581soup": 6121, "\u2581advise": 6122, "\u2581governor": 6123, "\u2581slots": 6124, "\u2581keyboard": 6125, "\u2581genes": 6126, "\u2581physician": 6127, "\u2581arranged": 6128, "\u2581processor": 6129, "\u2581endless": 6130, "\u2581relaxed": 6131, "\u2581na": 6132, "\u2581Vancouver": 6133, "\u2581Tennessee": 6134, "\u2581soccer": 6135, "\u2581Planning": 6136, "\u2581honestly": 6137, "\u2581destruction": 6138, "\u2581ensures": 6139, "\u2581alert": 6140, "\u2581inspiring": 6141, "\u2581crystal": 6142, "\u2581strip": 6143, "2016": 6144, "\u2581wing": 6145, "\u2581carries": 6146, "\u2581keen": 6147, "\u2581affects": 6148, "ful": 6149, "\u2581Bad": 6150, "ups": 6151, "\u2581shell": 6152, "\u2581twin": 6153, "\u2581plates": 6154, "\u2581passage": 6155, "\u2581centuries": 6156, "\u2581remind": 6157, "\u2581manufactured": 6158, "\u2581precisely": 6159, "\u2581charging": 6160, "\u2581reportedly": 6161, "\u2581magical": 6162, "\u2581Arab": 6163, "\u2581Front": 6164, "\u2581painful": 6165, "\u2581coaches": 6166, "\u2581handled": 6167, "\u2581argued": 6168, "\u2581pants": 6169, "\u2581Chairman": 6170, "\u2581limitations": 6171, "\u2581tune": 6172, "party": 6173, "\u2581Reading": 6174, "\u2581Lincoln": 6175, "\u2581genre": 6176, "mi": 6177, "\u2581donation": 6178, "\u2581Performance": 6179, "ir": 6180, "\u2581PR": 6181, "\u2581tourist": 6182, "\u2581Cover": 6183, "\u2581Unit": 6184, "\u2581shorter": 6185, "\u2581documentary": 6186, "\u2581slip": 6187, "\u2581Kate": 6188, "150": 6189, "\u2581assignment": 6190, "\u2581Stop": 6191, "\u2581calculated": 6192, "\u2581AP": 6193, "\u2581Di": 6194, "\u2581File": 6195, "\u2581mount": 6196, "\u2581Rob": 6197, "\u2581allegations": 6198, "\u2581couch": 6199, "\u2581DJ": 6200, "\u2581Luke": 6201, "\u2581Side": 6202, "\u2581tower": 6203, "\u2581Dad": 6204, "\u2581para": 6205, "\u2581travelling": 6206, "set": 6207, "\u2581Us": 6208, "\u2581burden": 6209, "\u2581Gary": 6210, "\u2581hook": 6211, "\u2581shelf": 6212, "high": 6213, "\u2581tail": 6214, "\u2581com": 6215, "\u2581dear": 6216, "\u2581sixth": 6217, "\u2581fought": 6218, "\u2581Article": 6219, "\u2581intelligent": 6220, "\u2581effectiveness": 6221, "\u2581drops": 6222, "\u2581beans": 6223, "\u2581liver": 6224, "ee": 6225, "\u2581Ali": 6226, "\u2581Marine": 6227, "\u2581guides": 6228, "\u2581iconic": 6229, "\u2581Future": 6230, "\u2581vibrant": 6231, "\u2581realistic": 6232, "\u2581humanity": 6233, "\u2581seller": 6234, "\u2581Pat": 6235, "\u2581hence": 6236, "\u2581Missouri": 6237, "\u2581achievement": 6238, "\u2581Vol": 6239, "\u2581dying": 6240, "\u2581margin": 6241, "\u2581independence": 6242, "\u2581FIG": 6243, "\u2581Doctor": 6244, "\u2581subtle": 6245, "\u2581donations": 6246, "\u2581engineer": 6247, "\u2581honey": 6248, "\u2581dimensions": 6249, "\u2581reveals": 6250, "\u2581Empire": 6251, "\u2581Know": 6252, "\u2581enemies": 6253, "\u2581consulting": 6254, "\u2581Records": 6255, "\u2581maker": 6256, "\u2581refund": 6257, "\u2581participated": 6258, "\u2581customized": 6259, "\u2581contractors": 6260, "\u2581trucks": 6261, "\u2581Denver": 6262, "im": 6263, "\u2581priced": 6264, "\u2581shoe": 6265, "\u2581silence": 6266, "\u2581disabled": 6267, "\u2581batteries": 6268, "\u2581Better": 6269, "\u2581Galaxy": 6270, "\u2581Bitcoin": 6271, "\u2581imagination": 6272, "\u2581strengthen": 6273, "\u2581credits": 6274, "km": 6275, "\u2581spokesman": 6276, "\u2581relate": 6277, "\u2581Sony": 6278, "\u2581blessed": 6279, "51": 6280, "\u2581cultures": 6281, "\u2581waters": 6282, "\u2581surfaces": 6283, "\u2581wrapped": 6284, "\u2581Kit": 6285, "\u2581loads": 6286, "\u2581buttons": 6287, "\u2581chip": 6288, "\u2581peaceful": 6289, "56": 6290, "\u2581stepped": 6291, "\u2581FL": 6292, "ford": 6293, "\u2581fitted": 6294, "such": 6295, "\u2581alike": 6296, "\u2581BC": 6297, "\u2581clinic": 6298, "\u2581Rather": 6299, "\u2581amenities": 6300, "\u2581frames": 6301, "\u2581thirty": 6302, "\u2581affairs": 6303, "\u2581terminal": 6304, "\u2581temple": 6305, "\u2581import": 6306, "\u2581Easter": 6307, "\u2581handful": 6308, "\u2581Dean": 6309, "\u2581density": 6310, "\u2581]": 6311, "\u2581fancy": 6312, "She": 6313, "\u2581Crusher": 6314, "\u2581moisture": 6315, "only": 6316, "\u2581extract": 6317, "\u2581Gas": 6318, "New": 6319, "\u2581bottles": 6320, "\u2581authorized": 6321, "\u2581threw": 6322, "One": 6323, "\u2581grid": 6324, "ability": 6325, "\u2581stolen": 6326, "250": 6327, "\u2581appliances": 6328, "wide": 6329, "\u2581biological": 6330, "\u2581Email": 6331, "\u2581psychological": 6332, "2015": 6333, "\u2581musicians": 6334, "ii": 6335, "\u2581tooth": 6336, "\u2581discussing": 6337, "html": 6338, "\u2581Upon": 6339, "\u2581outer": 6340, "\u2581requiring": 6341, "\u2581marine": 6342, "\u2581Jon": 6343, "\u2581Wars": 6344, "\u2581Common": 6345, "\u2581collecting": 6346, "ER": 6347, "\u2581Final": 6348, "\u2581Talk": 6349, "\u2581selecting": 6350, "\u2581controller": 6351, "\u2581Constitution": 6352, "\u25811950": 6353, "\u2581derived": 6354, "\u2581corruption": 6355, "what": 6356, "\u2581branches": 6357, "\u2581gardens": 6358, "\u2581oh": 6359, "\u2581retailers": 6360, "\u2581dozens": 6361, "\u2581Andy": 6362, "\u2581failing": 6363, "\u2581exhibit": 6364, "\u2581superb": 6365, "they": 6366, "\u2581purple": 6367, "\u2581addiction": 6368, "\u2581converted": 6369, "\u2581quit": 6370, "\u2581proceed": 6371, "\u2581embrace": 6372, "\u2581lately": 6373, "Our": 6374, "\u2581unfortunately": 6375, "\u2581discipline": 6376, "\u2581shed": 6377, "\u2581comply": 6378, "\u2581progressive": 6379, "\u2581tourism": 6380, "\u2581Phil": 6381, "\u2581binding": 6382, "\u2581exploration": 6383, "\u2581Custom": 6384, "\u2581Justin": 6385, "\u2581frozen": 6386, "\u2581Friends": 6387, "\u2581Affairs": 6388, "\u2581acceptance": 6389, "\u258156": 6390, "\u2581oxygen": 6391, "\u2581profession": 6392, "\u2581fastest": 6393, "\u2581treating": 6394, "\u2581titled": 6395, "54": 6396, "\u2581striking": 6397, "\u2581towns": 6398, "\u2581gently": 6399, "\u2581Commercial": 6400, "\u2581NC": 6401, "\u2581Sub": 6402, "\u2581Scottish": 6403, "\u2581Kentucky": 6404, "\u2581possess": 6405, "\u2581Castle": 6406, "za": 6407, "\u2581sized": 6408, "\u2581reminded": 6409, "\u2581memorable": 6410, "\u2581rocks": 6411, "\u2581shelter": 6412, "\u2581beaches": 6413, "\u2581incorporate": 6414, "\u2581bite": 6415, "\u2581separated": 6416, "\u2581Reserve": 6417, "\u2581TX": 6418, "\u2581thesis": 6419, "\u2581moderate": 6420, "\u2581dont": 6421, "\u2581essays": 6422, "\u2581timely": 6423, "\u2581Dumpster": 6424, "\u2581suspension": 6425, "\u2581alarm": 6426, "\u2581wherever": 6427, "\u2581identifying": 6428, "\u2581Ph": 6429, "\u2581Hills": 6430, "\u2581disability": 6431, "can": 6432, "\u258153": 6433, "\u2581achieving": 6434, "\u2581pollution": 6435, "\u2581Six": 6436, "being": 6437, "\u2581im": 6438, "\u2581mattress": 6439, "\u2581footage": 6440, "\u2581Something": 6441, "\u2581voices": 6442, "\u2581motivation": 6443, "\u2581pour": 6444, "\u2581NBA": 6445, "just": 6446, "\u2581determination": 6447, "\u2581counts": 6448, "\u2581ebook": 6449, "\u2581squad": 6450, "\u2581Hand": 6451, "\u2581Harris": 6452, "\u2581garlic": 6453, "\u2581Simple": 6454, "\u2581seemingly": 6455, "\u2581conservation": 6456, "\u2581agricultural": 6457, "\u2581departments": 6458, "\u2581width": 6459, "\u2581placement": 6460, "\u2581Inter": 6461, "\u2581VA": 6462, "\u2581tale": 6463, "\u2581recommendation": 6464, "\u2581demanding": 6465, "\u2581remembered": 6466, "ists": 6467, "\u2581eastern": 6468, "ana": 6469, "\u2581silent": 6470, "\u2581blocked": 6471, "\u2581Ma": 6472, "\u2581personalized": 6473, "\u2581stem": 6474, "\u2581flood": 6475, "\u2581Magic": 6476, "\u2581Anne": 6477, "\u2581nicely": 6478, "\u2581mainstream": 6479, "\u2581arrange": 6480, "\u2581Gen": 6481, "\u2581anytime": 6482, "\u2581dirty": 6483, "\u2581competing": 6484, "\u2581pic": 6485, "\u2581instances": 6486, "\u2581Labour": 6487, "\u2581mild": 6488, "\u2581secretary": 6489, "\u2581Hard": 6490, "\u2581beneath": 6491, "\u2581experiments": 6492, "\u2581z": 6493, "round": 6494, "\u2581beloved": 6495, "\u2581emerged": 6496, "\u2581Lane": 6497, "\u2581BE": 6498, "\u2581basement": 6499, "top": 6500, "\u2581Complete": 6501, "\u2581grain": 6502, "\u2581drag": 6503, "ac": 6504, "\u2581Ron": 6505, "\u2581defence": 6506, "\u25811989": 6507, "\u2581Bo": 6508, "\u2581repeatedly": 6509, "\u2581assumed": 6510, "board": 6511, "\u2581Terms": 6512, "\u2581Far": 6513, "\u2581laboratory": 6514, "\u2581Located": 6515, "\u2581optimal": 6516, "\u2581diameter": 6517, "\u2581automated": 6518, "Do": 6519, "\u2581experimental": 6520, "\u2581Portland": 6521, "\u2581restoration": 6522, "\u2581fitting": 6523, "\u2581diagnosed": 6524, "\u2581strive": 6525, "57": 6526, "\u2581violation": 6527, "\u2581corporations": 6528, "\u2581referring": 6529, "\u2581HR": 6530, "\u2581medications": 6531, "\u2581couples": 6532, "ary": 6533, "\u2581Utah": 6534, "\u2581hoped": 6535, "\u2581poll": 6536, "\u2581Cleveland": 6537, "\u2581strict": 6538, "\u2581brick": 6539, "\u2581Afghanistan": 6540, "\u2581routes": 6541, "\u2581Equipment": 6542, "\u2581stake": 6543, "\u2581dispute": 6544, "sized": 6545, "\u2581vitamin": 6546, "\u2581Interior": 6547, "\u2581identical": 6548, "\u2581profiles": 6549, "\u2581Until": 6550, "\u2581varied": 6551, "\u2581jury": 6552, "sen": 6553, "\u2581th": 6554, "\u2581acknowledge": 6555, "ten": 6556, "\u2581Stadium": 6557, "\u2581Walker": 6558, "\u2581IBM": 6559, "lo": 6560, "\u2581agreements": 6561, "our": 6562, "\u2581yeah": 6563, "\u2581Maria": 6564, "\u2581annually": 6565, "\u2581rack": 6566, "\u2581Josh": 6567, "\u2581boundaries": 6568, "\u2581Chi": 6569, "ina": 6570, "\u2581counsel": 6571, "\u2581significance": 6572, "\u2581Peace": 6573, "\u2581Boy": 6574, "\u2581lips": 6575, "\u2581drew": 6576, "\u2581lightweight": 6577, "TV": 6578, "\u2581sons": 6579, "\u2581laundry": 6580, "\u2581patent": 6581, "\u2581consultant": 6582, "\u2581Source": 6583, "\u2581claiming": 6584, "\u2581hunt": 6585, "va": 6586, "\u2581overwhelming": 6587, "\u2581tennis": 6588, "\u2581Rep": 6589, "\u2581spell": 6590, "\u2581Bruce": 6591, "\u2581threatened": 6592, "\u2581Temple": 6593, "op": 6594, "pa": 6595, "\u2581wage": 6596, "\u2581abandoned": 6597, "\u2581impacts": 6598, "\u2581Alliance": 6599, "\u043e": 6600, "\u2581Alan": 6601, "\u2581ruled": 6602, "\u2581supplement": 6603, "\u2581habit": 6604, "\u2581simultaneously": 6605, "\u2581rings": 6606, "\u2581login": 6607, "wa": 6608, "url": 6609, "\u2581allegedly": 6610, "\u2581URL": 6611, "\u2581closest": 6612, "\u2581tremendous": 6613, "are": 6614, "\u2581Electric": 6615, "\u2581cabinets": 6616, "ise": 6617, "\u2581mask": 6618, "even": 6619, "\u2581reflects": 6620, "\u2581Update": 6621, "\u2581implementing": 6622, "\u2581Practice": 6623, "\u2581protocol": 6624, "\u2581measurements": 6625, "\u2581motivated": 6626, "\u2581Labor": 6627, "\u2581mechanisms": 6628, "\u2581Companies": 6629, "\u2581wherein": 6630, "\u2581crack": 6631, "\u2581Islam": 6632, "\u2581installing": 6633, "\u2581implications": 6634, "\u2581Soviet": 6635, "\u2581celebrating": 6636, "\u2581Previous": 6637, "\u2581Francis": 6638, "\u2581publications": 6639, "\u2581influenced": 6640, "\u2581invested": 6641, "state": 6642, "\u2581Charlie": 6643, "\u2581Dead": 6644, "\u2581inflation": 6645, "\u2581Images": 6646, "\u2581analyze": 6647, "\u2581crop": 6648, "\u2581viewers": 6649, "\u2581suits": 6650, "\u2581Pan": 6651, "\u2581gambling": 6652, "\u2581hybrid": 6653, "\u2581Rick": 6654, "\u2581bay": 6655, "\u2581Ice": 6656, "\u2581survived": 6657, "\u2581disk": 6658, "\u2581detect": 6659, "\u2581notion": 6660, "2019": 6661, "\u2581tourists": 6662, "\u2581grocery": 6663, "\u2581tags": 6664, "\u2581PhD": 6665, "\u2581spa": 6666, "\u2581calories": 6667, "\u2581bin": 6668, "\u2581bits": 6669, "\u2581stroke": 6670, "\u2581lemon": 6671, "\u2581wore": 6672, "\u2581gradually": 6673, "\u2581attacked": 6674, "\u2581tablets": 6675, "\u2581grants": 6676, "\u2581Jonathan": 6677, "ja": 6678, "\u2581Springs": 6679, "\u2581lawn": 6680, "\u2581radiation": 6681, "\u2581fed": 6682, "\u2581Highway": 6683, "\u2581Between": 6684, "\u2581magnetic": 6685, "\u2581qualities": 6686, "\u2581harmful": 6687, "\u2581THIS": 6688, "\u2581contacts": 6689, "\u2581zip": 6690, "\u2581Had": 6691, "\u2581olive": 6692, "\u2581lamp": 6693, "specific": 6694, "\u2581observe": 6695, "\u2581reserves": 6696, "\u2581belong": 6697, "\u2581makers": 6698, "\u2581seal": 6699, "\u2581fleet": 6700, "\u2581Bring": 6701, "\u2581contacted": 6702, "\u2581Speaking": 6703, "\u2581actress": 6704, "\u2581shame": 6705, "\u2581bearing": 6706, "\u2581podcast": 6707, "\u2581Core": 6708, "\u2581buried": 6709, "\u2581incorporated": 6710, "\u2581ski": 6711, "\u2581leaf": 6712, "\u2581disc": 6713, "\u2581welfare": 6714, "\u2581boring": 6715, "\u2581auction": 6716, "\u2581replacing": 6717, "\u2581proteins": 6718, "\u2581proposals": 6719, "\u2581perception": 6720, "\u2581Hamilton": 6721, "\u2581glory": 6722, "\u2581liberal": 6723, "ised": 6724, "\u2581oils": 6725, "\u2581diamond": 6726, "\u2581confirmation": 6727, "\u2581Rev": 6728, "\u2581nail": 6729, "\u2581classical": 6730, "\u2581demo": 6731, "\u2581Wedding": 6732, "\u2581suspended": 6733, "\u2581peer": 6734, "\u2581attendance": 6735, "\u2581coconut": 6736, "\u2581dough": 6737, "\u2581Challenge": 6738, "\u2581excessive": 6739, "\u2581mature": 6740, "\u2581consecutive": 6741, "\u2581cookie": 6742, "\u2581Sport": 6743, "\u2581twist": 6744, "\u2581DO": 6745, "\u2581Additional": 6746, "\u2581holder": 6747, "\u2581disposal": 6748, "\u2581console": 6749, "\u2581Girls": 6750, "\u2581delighted": 6751, "ga": 6752, "\u2581Actually": 6753, "\u2581Meeting": 6754, "\u2581outlet": 6755, "\u2581suggesting": 6756, "\u2581sponsored": 6757, "ji": 6758, "\u2581blogging": 6759, "\u2581Phoenix": 6760, "\u2581IL": 6761, "\u2581YOUR": 6762, "\u2581technological": 6763, "\u2581intensity": 6764, "\u2581opponent": 6765, "\u2581junk": 6766, "\u2581nuts": 6767, "\u2581labels": 6768, "58": 6769, "\u2581thereby": 6770, "\u2581crossed": 6771, "\u2581excellence": 6772, "\u2581obligation": 6773, "\u2581Cash": 6774, "\u2581Metal": 6775, "\u2581apartments": 6776, "\u2581enabling": 6777, "\u2581vinyl": 6778, "\u2581spacious": 6779, "\u2581Style": 6780, "\u2581replied": 6781, "\u2581scratch": 6782, "\u2581ABC": 6783, "\u2581Khan": 6784, "\u2581legitimate": 6785, "\u2581worthy": 6786, "\u2581Jo": 6787, "\u2581cancel": 6788, "\u2581trails": 6789, "\u2581restricted": 6790, "\u2581Greece": 6791, "\u2581tutorial": 6792, "\u2581judges": 6793, "\u2581bet": 6794, "\u2581friendship": 6795, "\u2581Investment": 6796, "\u2581computing": 6797, "\u2581sake": 6798, "\u2581colorful": 6799, "\u2581negotiations": 6800, "\u2581Lisa": 6801, "\u2581jazz": 6802, "\u2581confusion": 6803, "era": 6804, "\u2581Trail": 6805, "\u2581voltage": 6806, "\u2581guided": 6807, "\u2581variables": 6808, "\u2581workforce": 6809, "\u2581swim": 6810, "\u2581attorneys": 6811, "\u2581strain": 6812, "\u2581tender": 6813, "\u2581sisters": 6814, "\u2581dealer": 6815, "\u2581trim": 6816, "\u2581reflection": 6817, "\u2581Java": 6818, "\u2581gross": 6819, "\u2581versatile": 6820, "\u2581elite": 6821, "\u2581cannabis": 6822, "\u2581Single": 6823, "\u2581defeated": 6824, "\u2581funeral": 6825, "\u2581alternatives": 6826, "\u2581jumped": 6827, "\u2581visa": 6828, "\u2581reduces": 6829, "\u2581Thailand": 6830, "\u2581boats": 6831, "\u2581desert": 6832, "page": 6833, "\u2581fails": 6834, "\u2581browse": 6835, "\u2581Ha": 6836, "\u2581colored": 6837, "\u2581citizen": 6838, "\u2581Dance": 6839, "\u2581climbing": 6840, "\u2581hub": 6841, "\u2581labour": 6842, "\u2581tear": 6843, "\u2581Repair": 6844, "\u2581Malaysia": 6845, "\u2581revolution": 6846, "\u2581departure": 6847, "ki": 6848, "\u2581loading": 6849, "\u2581essence": 6850, "\u2581Cut": 6851, "\u2581devoted": 6852, "\u2581anticipated": 6853, "\u2581utilizing": 6854, "\u2581approached": 6855, "\u2581isolated": 6856, "\u2581jaw": 6857, "\u2581reporters": 6858, "\u2581scared": 6859, "\u2581Con": 6860, "\u2581Enterprise": 6861, "\u2581optional": 6862, "\u2581Often": 6863, "\u2581audiences": 6864, "\u2581Fun": 6865, "\u2581highway": 6866, "\u2581Round": 6867, "\u2581shoulders": 6868, "\u2581offerings": 6869, "\u2581complexity": 6870, "\u2581Quick": 6871, "\u2581mutual": 6872, "\u2581suited": 6873, "\u2581deemed": 6874, "\u2581Sri": 6875, "\u2581promising": 6876, "good": 6877, "\u2581scholarship": 6878, "\u2581specifications": 6879, "\u2581countless": 6880, "\u2581adjusted": 6881, "\u2581trans": 6882, "\u2581twelve": 6883, "\u2581thorough": 6884, "\u2581Inside": 6885, "\u2581Door": 6886, "\u2581satisfy": 6887, "\u258166": 6888, "\u2581Okay": 6889, "\u2581consciousness": 6890, "\u2581elderly": 6891, "\u2581Date": 6892, "\u2581wiring": 6893, "\u2581Thanksgiving": 6894, "\u2581Staff": 6895, "\u2581Moscow": 6896, "\u2581Event": 6897, "\u2581submission": 6898, "\u2581cabin": 6899, "\u2581dressing": 6900, "\u2581agriculture": 6901, "\u2581downloaded": 6902, "\u2581Sweden": 6903, "\u2581differ": 6904, "\u2581earning": 6905, "\u2581Cool": 6906, "\u2581shadow": 6907, "\u2581appreciation": 6908, "\u2581Tri": 6909, "\u2581addressing": 6910, "\u2581captain": 6911, "2014": 6912, "week": 6913, "\u2581Amy": 6914, "\u2581traditions": 6915, "\u2581intake": 6916, "\u2581rally": 6917, "\u2581ranking": 6918, "light": 6919, "\u2581verify": 6920, "\u2581Player": 6921, "\u2581reliability": 6922, "\u2581refuse": 6923, "\u2581containers": 6924, "\u2581basket": 6925, "\u2581Netflix": 6926, "\u2581populations": 6927, "\u2581closet": 6928, "\u2581affiliate": 6929, "\u2581Turn": 6930, "\u2581Language": 6931, "\u2581adopt": 6932, "\u2581beating": 6933, "\u2581aging": 6934, "\u2581ignored": 6935, "\u2581Together": 6936, "\u2581bones": 6937, "\u2581Cost": 6938, "\u2581Works": 6939, "\u2581bonds": 6940, "\u2581mice": 6941, "\u2581Communications": 6942, "\u2581mad": 6943, "\u258158": 6944, "\u2581uniform": 6945, "\u2581Organization": 6946, "\u2581Current": 6947, "\u2581prospects": 6948, "\u2581Islands": 6949, "\u2581Battle": 6950, "\u2581CT": 6951, "\u2581drain": 6952, "\u2581immigrants": 6953, "\u2581fears": 6954, "\u2581Brexit": 6955, "\u2581Years": 6956, "\u2581Da": 6957, "\u2581rounds": 6958, "~": 6959, "\u2581grip": 6960, "\u2581transparent": 6961, "\u2581Tower": 6962, "\u2581Susan": 6963, "\u2581Metro": 6964, "\u2581warming": 6965, "\u2581reminder": 6966, "\u2581entities": 6967, "\u2581organize": 6968, "ex": 6969, "\u2581Course": 6970, "\u2581ranks": 6971, "\u2581cited": 6972, "\u2581hike": 6973, "sh": 6974, "\u2581joke": 6975, "\u2581receives": 6976, "air": 6977, "\u2581mixing": 6978, "\u2581beta": 6979, "\u2581creatures": 6980, "\u2581romance": 6981, "\u2581quest": 6982, "\u2581Jose": 6983, "care": 6984, "\u2581controversial": 6985, "\u2581Coffee": 6986, "\u2581360": 6987, "\u2581Russell": 6988, "\u2581Entertainment": 6989, "\u2581Del": 6990, "\u2581presentations": 6991, "\u2581unlimited": 6992, "\u2581obligations": 6993, "\u2581Micro": 6994, "\u2581assisted": 6995, "\u2581Tea": 6996, "\u2581measuring": 6997, "\u2581stakeholders": 6998, "\u2581Link": 6999, "\u2581winds": 7000, "\u2581cure": 7001, "\u2581showcase": 7002, "\u2581Greg": 7003, "Oh": 7004, "\u2581110": 7005, "\u2581corporation": 7006, "\u2581rewards": 7007, "\u2581lyrics": 7008, "\u2581Junior": 7009, "\u2581foster": 7010, "\u2581chamber": 7011, "\u2581besides": 7012, "\u2581renowned": 7013, "\u2581marketplace": 7014, "\u25811988": 7015, "\u2581listings": 7016, "\u2581seeks": 7017, "\u2581Resort": 7018, "\u2581reactions": 7019, "\u2581headquarters": 7020, "\u2581receiver": 7021, "owned": 7022, "\u2581vacuum": 7023, "\u2581Brand": 7024, "\u2581candy": 7025, "\u2581Grace": 7026, "\u2581analytics": 7027, "2013": 7028, "\u2581Gulf": 7029, "On": 7030, "\u2581investor": 7031, "\u2581prospect": 7032, "\u2581variation": 7033, "\u2581reflected": 7034, "\u2581Map": 7035, "\u2581USD": 7036, "\u2581cloth": 7037, "\u2581resistant": 7038, "\u2581Clean": 7039, "\u258157": 7040, "min": 7041, "\u258100": 7042, "ted": 7043, "\u2581seating": 7044, "\u2581crushing": 7045, "\u2581Thompson": 7046, "\u2581Mid": 7047, "\u2581potatoes": 7048, "\u2581Mission": 7049, "\u2581Convention": 7050, "\u2581deciding": 7051, "\u2581adapt": 7052, "\u2581dropping": 7053, "\u2581conscious": 7054, "\u2581separation": 7055, "\u2581knowledgeable": 7056, "\u2581Recently": 7057, "\u2581prints": 7058, "der": 7059, "\u2581Netherlands": 7060, "\u2581pad": 7061, "ad": 7062, "\u2581invitation": 7063, "\u2581Antonio": 7064, "\u2581crossing": 7065, "\u2581touched": 7066, "\u2581Charlotte": 7067, "\u2581Taking": 7068, "\u2581stones": 7069, "\u2581Orleans": 7070, "Star": 7071, "\u2581Eve": 7072, "gen": 7073, "\u2581traded": 7074, "\u2581attractions": 7075, "\u2581summit": 7076, "\u2581\u0301": 7077, "\u2581Dream": 7078, "\u2581modify": 7079, "\u2581islands": 7080, "\u2581grinding": 7081, "\u2581Furniture": 7082, "\u2581betting": 7083, "\u2581uncomfortable": 7084, "\u2581pie": 7085, "\u2581nationwide": 7086, "ny": 7087, "\u2581meditation": 7088, "\u2581tongue": 7089, "\u2581lighter": 7090, "\u2581mold": 7091, "\u2581hungry": 7092, "\u2581backyard": 7093, "\u258162": 7094, "\u2581advocate": 7095, "\u2581poster": 7096, "\u2581ordering": 7097, "\u2581Liverpool": 7098, "\u2581Cal": 7099, "\u2581suggestion": 7100, "\u2581Philippines": 7101, "\u2581Kennedy": 7102, "\u2581treats": 7103, "\u2581conditioning": 7104, "\u2581vessel": 7105, "\u2581IV": 7106, "\u2581Used": 7107, "\u2581Usually": 7108, "war": 7109, "speed": 7110, "\u2581Urban": 7111, "\u2581excuse": 7112, "\u2581separately": 7113, "\u2581fireplace": 7114, "\u2581compelling": 7115, "\u2581Ukraine": 7116, "\u2581determining": 7117, "\u2581accidents": 7118, "\u2581Heritage": 7119, "\u2581curve": 7120, "\u2581Legal": 7121, "\u2581Brooklyn": 7122, "\u2581welcomed": 7123, "\u2581Direct": 7124, "\u2581Roll": 7125, "\u2581paragraph": 7126, "\u2581teaches": 7127, "\u2581teen": 7128, "\u2581proceedings": 7129, "\u2581Hopefully": 7130, "rich": 7131, "\u2581fulfill": 7132, "\u2581entrepreneurs": 7133, "\u2581accepting": 7134, "\u2581sacrifice": 7135, "\u2581underground": 7136, "\u2581Muslims": 7137, "\u2581shades": 7138, "\u2581scary": 7139, "\u2581darkness": 7140, "\u2581Technical": 7141, "\u2581Hawaii": 7142, "\u2581shipped": 7143, "\u2581Flash": 7144, "\u2581airline": 7145, "\u2581gaining": 7146, "\u2581bi": 7147, "\u2581predict": 7148, "\u2581informative": 7149, "\u2581executed": 7150, "\u2581Phone": 7151, "\u2581radical": 7152, "\u2581HTML": 7153, "\u2581presenting": 7154, "\u2581humor": 7155, "\u2581exceed": 7156, "\u2581assists": 7157, "\u2581dried": 7158, "\u2581ME": 7159, "\u2581explaining": 7160, "\u2581intimate": 7161, "\u2581preferences": 7162, "\u2581regarded": 7163, "kin": 7164, "\u2581physics": 7165, "\u2581utilized": 7166, "\u2581Falls": 7167, "\u2581subsequently": 7168, "\u2581ha": 7169, "\u2581literary": 7170, "\u2581cognitive": 7171, "\u2581Graham": 7172, "\u2581hiking": 7173, "\u2581dive": 7174, "\u2581mere": 7175, "\u2581tropical": 7176, "\u2581decreased": 7177, "\u2581Century": 7178, "\u2581canvas": 7179, "\u2581Fresh": 7180, "\u2581Title": 7181, "\u2581mineral": 7182, "\u2581Jerusalem": 7183, "\u2581wondered": 7184, "nt": 7185, "\u2581Laura": 7186, "\u2581readily": 7187, "\u2581HERE": 7188, "\u2581supportive": 7189, "\u2581protective": 7190, "\u2581GPS": 7191, "\u2581preventing": 7192, "red": 7193, "\u2581detected": 7194, "\u2581Results": 7195, "\u2581veterans": 7196, "\u2581Lab": 7197, "\u2581combines": 7198, "\u2581reaches": 7199, "\u2581shine": 7200, "\u2581Indonesia": 7201, "\u2581texts": 7202, "\u2581consensus": 7203, "\u2581Duke": 7204, "\u2581highlighted": 7205, "\u2581broader": 7206, "\u2581opponents": 7207, "\u2581lands": 7208, "\u2581instructor": 7209, "\u2581praise": 7210, "water": 7211, "\u2581outdoors": 7212, "\u2581stays": 7213, "\u2581enjoys": 7214, "\u2581Culture": 7215, "\u2581widespread": 7216, "\u2581particles": 7217, "\u2581Technologies": 7218, "\u2581custody": 7219, "\u2581Coach": 7220, "\u2581charm": 7221, "\u2581Deep": 7222, "\u2581Got": 7223, "\u2581floating": 7224, "\u2581wines": 7225, "\u2581districts": 7226, "\u2581Fine": 7227, "\u2581journalist": 7228, "\u2581additionally": 7229, "\u2581homework": 7230, "\u2581Harvard": 7231, "\u2581LOVE": 7232, "\u2581spouse": 7233, "\u2581waited": 7234, "\u2581Alaska": 7235, "\u2581query": 7236, "\u2581camping": 7237, "\u2581Jennifer": 7238, "\u2581Throughout": 7239, "\u2581pointing": 7240, "\u2581Account": 7241, "\u2581charts": 7242, "\u2581forex": 7243, "\u2581epic": 7244, "\u2581partial": 7245, "\u2581arise": 7246, "\u2581Schools": 7247, "\u2581predicted": 7248, "\u2581Beijing": 7249, "\u2581Steven": 7250, "85": 7251, "\u2581Christopher": 7252, "\u2581courage": 7253, "\u2581Baltimore": 7254, "\u2581contributing": 7255, "\u2581Register": 7256, "\u2581cialis": 7257, "\u2581terrorist": 7258, "\u2581struggled": 7259, "bo": 7260, "\u2581landed": 7261, "\u2581Native": 7262, "\u2581blade": 7263, "\u2581affecting": 7264, "yard": 7265, "\u2581specialty": 7266, "\u2581screens": 7267, "\u2581Dubai": 7268, "\u2581Aaron": 7269, "\u2581forming": 7270, "\u2581Oak": 7271, "\u2581Maine": 7272, "\u2581solving": 7273, "\u2581establishing": 7274, "\u2581barrier": 7275, "\u2581flavors": 7276, "\u2581Ok": 7277, "\u2581pit": 7278, "\u2581Remove": 7279, "\u2581GM": 7280, "\u2581bow": 7281, "\u2581Consider": 7282, "size": 7283, "\u2581resolved": 7284, "\u2581notification": 7285, "\u2581Gordon": 7286, "\u2581folk": 7287, "\u2581crown": 7288, "\u2581patience": 7289, "\u2581toxic": 7290, "\u2581unnecessary": 7291, "\u2581Prize": 7292, "\u2581examined": 7293, "\u2581Toyota": 7294, "\u2581peers": 7295, "\u2581libraries": 7296, "\u2581tends": 7297, "\u2581Ho": 7298, "\u2581flip": 7299, "\u2581variations": 7300, "\u2581adventures": 7301, "\u2581optical": 7302, "\u2581Euro": 7303, "berg": 7304, "\u2581Sean": 7305, "\u2581abstract": 7306, "\u2581debris": 7307, "\u2581plugin": 7308, "\u2581Heat": 7309, "\u2581investigating": 7310, "\u2581Holiday": 7311, "\u2581dated": 7312, "\u2581pockets": 7313, "\u2581continuously": 7314, "\u2581notable": 7315, "\u2581Tokyo": 7316, "\u2581straightforward": 7317, "\u2581filters": 7318, "\u2581minority": 7319, "\u258103": 7320, "\u2581Others": 7321, "\u2581navigation": 7322, "\u2581courtesy": 7323, "\u2581facial": 7324, "\u2581targeting": 7325, "\u2581Nelson": 7326, "\u2581modules": 7327, "\u2581Swiss": 7328, "\u2581kingdom": 7329, "\u2581preference": 7330, "\u2581Sweet": 7331, "\u2581Palace": 7332, "\u2581precision": 7333, "\u2581girlfriend": 7334, "\u2581careers": 7335, "\u25811986": 7336, "\u2581dimension": 7337, "\u2581Turkish": 7338, "\u2581thankful": 7339, "\u2581boyfriend": 7340, "\u2581ISO": 7341, "\u2581stack": 7342, "\u2581analyst": 7343, "\u2581booked": 7344, "\u2581Carter": 7345, "\u2581Storage": 7346, "\u2581broker": 7347, "\u2581SC": 7348, "\u2581\u00a7": 7349, "\u2581adjacent": 7350, "\u2581350": 7351, "\u2581cleaner": 7352, "\u2581Certified": 7353, "\u2581Craig": 7354, "\u2581compound": 7355, "\u2581Fish": 7356, "\u2581innocent": 7357, "69": 7358, "looking": 7359, "\u2581appealing": 7360, "\u2581favorites": 7361, "\u2581Index": 7362, "\u2581sooner": 7363, "\u2581royal": 7364, "\u2581momentum": 7365, "gov": 7366, "\u2581Blood": 7367, "\u2581blank": 7368, "\u2581101": 7369, "depth": 7370, "\u2581logical": 7371, "700": 7372, "\u2581Motor": 7373, "\u2581google": 7374, "les": 7375, "\u2581wound": 7376, "\u2581symbols": 7377, "\u2581perceived": 7378, "\u2581sensors": 7379, "\u2581Switzerland": 7380, "\u2581holy": 7381, "\u2581easiest": 7382, "\u2581seasonal": 7383, "\u2581discrimination": 7384, "\u2581valve": 7385, "\u2581internationally": 7386, "\u2581electronics": 7387, "\u2581embodiment": 7388, "\u2581inclusion": 7389, "\u2581Song": 7390, "\u2581voter": 7391, "\u2581functioning": 7392, "\u2581dig": 7393, "\u2581killer": 7394, "ol": 7395, "\u2581queen": 7396, "\u2581legally": 7397, "\u2581Parker": 7398, "\u2581colleges": 7399, "\u2581AS": 7400, "\u2581grows": 7401, "\u2581migration": 7402, "mer": 7403, "\u2581ink": 7404, "\u25811987": 7405, "\u2581reasonably": 7406, "\u2581consult": 7407, "service": 7408, "\u2581thermal": 7409, "\u2581trauma": 7410, "\u2581journalists": 7411, "2012": 7412, "\u2581Cooper": 7413, "\u2581heated": 7414, "\u2581sustainability": 7415, "\u2581algorithm": 7416, "\u2581horrible": 7417, "\u2581fridge": 7418, "\u2581classified": 7419, "\u2581generating": 7420, "\u2581Mix": 7421, "\u2581None": 7422, "\u2581formats": 7423, "\u2581integrate": 7424, "\u2581surgical": 7425, "\u2581costly": 7426, "\u2581attracted": 7427, "\u2581Earlier": 7428, "room": 7429, "\u2581employ": 7430, "\u2581ethical": 7431, "\u2581forgot": 7432, "\u2581cleaned": 7433, "\u2581daughters": 7434, "\u2581Dragon": 7435, "\u2581donated": 7436, "\u2581accessed": 7437, "\u2581beside": 7438, "\u2581Associated": 7439, "\u2581imaging": 7440, "\u2581individually": 7441, "\u2581grades": 7442, "\u2581cord": 7443, "\u2581Du": 7444, "\u2581pipeline": 7445, "\u2581Pa": 7446, "\u2581conducting": 7447, "\u2581Nevertheless": 7448, "\u2581Hair": 7449, "\u2581Intel": 7450, "\u2581tiles": 7451, "ous": 7452, "\u2581transit": 7453, "\u2581sex": 7454, "\u2581Senator": 7455, "\u2581resist": 7456, "now": 7457, "\u2581recycling": 7458, "\u2581portal": 7459, "\u2581Na": 7460, "\u2581Medicare": 7461, "\u2581lovers": 7462, "\u2581speeds": 7463, "\u2581linear": 7464, "\u2581challenged": 7465, "\u2581soap": 7466, "ney": 7467, "\u2581poem": 7468, "\u258159": 7469, "\u2581Ad": 7470, "\u2581wallpaper": 7471, "\u2581teens": 7472, "\u2581Bed": 7473, "\u2581Walk": 7474, "\u2581barrel": 7475, "\u2581trains": 7476, "\u2581Send": 7477, "\u2581ka": 7478, "\u2581coins": 7479, "\u2581accurately": 7480, "\u2581substitute": 7481, "\u2581Almost": 7482, "some": 7483, "\u2581supplements": 7484, "\u2581cleared": 7485, "\u2581pile": 7486, "\u2581critics": 7487, "\u2581ed": 7488, "\u2581Freedom": 7489, "\u2581Fashion": 7490, "Man": 7491, "\u2581paths": 7492, "\u2581breach": 7493, "\u2581ethnic": 7494, "\u2581bomb": 7495, "\u2581coin": 7496, "\u2581institutional": 7497, "\u2581Pop": 7498, "kg": 7499, "\u2581flows": 7500, "\u2581delicate": 7501, "\u2581Thai": 7502, "\u2581Independent": 7503, "\u2581mobility": 7504, "\u2581intend": 7505, "\u2581Caribbean": 7506, "\u2581distinctive": 7507, "\u2581phenomenon": 7508, "\u2581lounge": 7509, "\u2581clarity": 7510, "\u2581freely": 7511, "\u2581wings": 7512, "\u2581DIY": 7513, "\u2581recipient": 7514, "\u2581automotive": 7515, "\u2581syndrome": 7516, "\u2581prayers": 7517, "\u2581Beyond": 7518, "\u2581pose": 7519, "\u2581partially": 7520, "\u2581stairs": 7521, "\u2581audit": 7522, "\u2581priorities": 7523, "\u2581Base": 7524, "\u2581tub": 7525, "\u2581vocal": 7526, "\u2581picks": 7527, "\u2581Excellent": 7528, "\u2581vessels": 7529, "\u2581automation": 7530, "\u2581executives": 7531, "\u2581flesh": 7532, "\u2581heal": 7533, "\u2581eager": 7534, "\u2581vendor": 7535, "\u2581Syrian": 7536, "\u2581abortion": 7537, "\u2581observation": 7538, "\u2581subscribe": 7539, "\u2581luxurious": 7540, "\u2581Wayne": 7541, "\u2581valley": 7542, "\u2581shake": 7543, "\u2581infections": 7544, "\u2581chemistry": 7545, "\u2581embedded": 7546, "\u2581tailored": 7547, "\u2581suspected": 7548, "\u2581alter": 7549, "\u2581premier": 7550, "white": 7551, "\u2581Singh": 7552, "\u2581dealt": 7553, "\u2581dresses": 7554, "\u2581Spa": 7555, "\u2581specially": 7556, "\u2581occasional": 7557, "\u2581Med": 7558, "\u2581promoted": 7559, "\u258198": 7560, "\u2581Palm": 7561, "wing": 7562, "\u2581continually": 7563, "\u2581Gray": 7564, "ns": 7565, "\u2581revenues": 7566, "\u2581dedication": 7567, "\u2581serial": 7568, "\u2581Days": 7569, "get": 7570, "\u2581testimony": 7571, "\u2581Barbara": 7572, "\u2581transformed": 7573, "\u2581afterwards": 7574, "\u2581catalog": 7575, "\u2581hesitate": 7576, "\u2581Pet": 7577, "\u2581nerve": 7578, "\u2581occupied": 7579, "\u2581lined": 7580, "\u2581Question": 7581, "\u2581controlling": 7582, "\u2581Mars": 7583, "\u2581barriers": 7584, "\u2581Pi": 7585, "\u2581silly": 7586, "\u2581longest": 7587, "\u2581recruitment": 7588, "ins": 7589, "\u2581sustained": 7590, "\u2581legendary": 7591, "\u258163": 7592, "\u2581Imagine": 7593, "\u2581Animal": 7594, "\u2581secrets": 7595, "\u2581Letter": 7596, "\u2581backing": 7597, "\u2581venues": 7598, "\u2581convince": 7599, "\u2581manufacture": 7600, "\u2581pharmacy": 7601, "\u2581Especially": 7602, "\u2581dramatically": 7603, "\u2581tricks": 7604, "\u2581coupled": 7605, "\u2581Intelligence": 7606, "\u2581dynamics": 7607, "\u2581Funeral": 7608, "\u2581pickup": 7609, "\u2581receipt": 7610, "\u2581surveillance": 7611, "\u2581attributes": 7612, "step": 7613, "\u258168": 7614, "\u2581Arabia": 7615, "\u2581Obviously": 7616, "\u2581restored": 7617, "\u2581Poland": 7618, "\u2581Premium": 7619, "\u2581Baker": 7620, "\u2581stir": 7621, "\u2581Warren": 7622, "\u2581dominant": 7623, "\u2581Mail": 7624, "\u2581Hillary": 7625, "\u2581magnificent": 7626, "\u2581briefly": 7627, "\u2581Speed": 7628, "\u2581underneath": 7629, "\u2581awful": 7630, "\u2581Jacob": 7631, "chi": 7632, "\u2581gang": 7633, "\u2581cups": 7634, "\u2581coastal": 7635, "\u2581prospective": 7636, "\u2581skip": 7637, "there": 7638, "\u2581tent": 7639, "\u2581pics": 7640, "\u2581collaborative": 7641, "\u2581AR": 7642, "ities": 7643, "86": 7644, "\u2581publisher": 7645, "\u2581disclosure": 7646, "\u2581startup": 7647, "\u2581banned": 7648, "\u2581shelves": 7649, "\u25811984": 7650, "\u2581harsh": 7651, "\u2581charming": 7652, "\u2581chef": 7653, "ak": 7654, "\u2581Text": 7655, "\u2581varieties": 7656, "\u2581surprisingly": 7657, "\u2581NASA": 7658, "\u2581governance": 7659, "\u2581Feel": 7660, "\u2581uncertainty": 7661, "\u2581Federation": 7662, "\u2581Salt": 7663, "\u2581robot": 7664, "ini": 7665, "\u2581gel": 7666, "\u2581programmes": 7667, "\u2581privilege": 7668, "\u2581permits": 7669, "\u25811985": 7670, "\u2581Picture": 7671, "\u2581strikes": 7672, "\u2581paste": 7673, "\u2581Arthur": 7674, "\u2581wellness": 7675, "\u2581applicants": 7676, "\u2581Gift": 7677, "\u2581clever": 7678, "\u2581recovered": 7679, "\u2581nowhere": 7680, "\u2581corners": 7681, "\u2581promotional": 7682, "\u2581Chelsea": 7683, "\u2581blast": 7684, "\u2581Adams": 7685, "\u2581lap": 7686, "\u2581Bear": 7687, "\u2581Hence": 7688, "\u2581CNN": 7689, "\u2581lip": 7690, "\u2581fate": 7691, "\u2581Region": 7692, "\u2581Guys": 7693, "ard": 7694, "mar": 7695, "\u2581Cold": 7696, "\u00c2": 7697, "\u2581Rich": 7698, "\u2581Author": 7699, "\u2581albums": 7700, "\u2581Details": 7701, "\u2581animation": 7702, "\u2581Hunter": 7703, "\u2581comparable": 7704, "\u2581struggles": 7705, "\u258161": 7706, "\u2581mothers": 7707, "\u2581educated": 7708, "\u2581respected": 7709, "\u2581Rachel": 7710, "si": 7711, "\u2581Diamond": 7712, "\u2581incidents": 7713, "\u2581Roger": 7714, "\u2581theories": 7715, "\u2581Wine": 7716, "\u2581outlets": 7717, "\u2581hockey": 7718, "\u2581indicator": 7719, "\u2581obtaining": 7720, "\u2581Kings": 7721, "\u2581Discover": 7722, "\u2581pressing": 7723, "\u2581deny": 7724, "\u2581partly": 7725, "\u2581tire": 7726, "\u2581destinations": 7727, "\u2581companion": 7728, "\u2581Grey": 7729, "\u2581Movie": 7730, "non": 7731, "\u258102": 7732, "\u2581thrilled": 7733, "\u2581adorable": 7734, "\u2581renewable": 7735, "\u2581magazines": 7736, "\u2581Crown": 7737, "\u2581THAT": 7738, "\u2581Say": 7739, "\u2581refugees": 7740, "\u2581tasty": 7741, "\u2581disabilities": 7742, "\u2581welcoming": 7743, "\u2581Nevada": 7744, "\u2581Wright": 7745, "\u2581neighbor": 7746, "\u2581batch": 7747, "\u2581Grade": 7748, "\u2581Shipping": 7749, "\u2581NJ": 7750, "\u2581Ex": 7751, "\u2581NYC": 7752, "\u2581evolved": 7753, "\u2581semester": 7754, "\u2581Rd": 7755, "\u2581volumes": 7756, "\u2581quoted": 7757, "\u2581decorating": 7758, "\u2581Mississippi": 7759, "\u2581Editor": 7760, "about": 7761, "\u2581Angel": 7762, "\u2581Commerce": 7763, "low": 7764, "\u2581WE": 7765, "\u2581contrary": 7766, "\u2581delight": 7767, "\u2581borders": 7768, "\u2581comprises": 7769, "\u2581emotion": 7770, "\u2581Tickets": 7771, "\u2581consume": 7772, "\u2581Speaker": 7773, "\u2581tires": 7774, "\u2581ANY": 7775, "\u2581Cell": 7776, "\u2581hung": 7777, "\u2581spotted": 7778, "\u2581seventh": 7779, "\u2581Either": 7780, "\u2581reporter": 7781, "\u2581Depending": 7782, "\u2581nearest": 7783, "\u2581jeans": 7784, "\u258108": 7785, "\u2581alumni": 7786, "\u2581compromise": 7787, "\u2581healthier": 7788, "\u2581reminds": 7789, "\u2581evident": 7790, "\u2581Print": 7791, "\u2581Location": 7792, "\u2581nonprofit": 7793, "\u2581Pittsburgh": 7794, "\u2581Pinterest": 7795, "\u2581stressed": 7796, "\u2581WITH": 7797, "\u2581relatives": 7798, "\u2581Original": 7799, "\u2581infected": 7800, "\u2581Eye": 7801, "\u2581700": 7802, "\u2581pairs": 7803, "\u2581Pages": 7804, "\u2581packing": 7805, "\u2581Revolution": 7806, "\u2581collapse": 7807, "\u2581Write": 7808, "\u2581appearing": 7809, "\u2581Jimmy": 7810, "\u2581Ko": 7811, "\u2581Yoga": 7812, "\u2581convention": 7813, "\u2581mandatory": 7814, "\u2581coupons": 7815, "\u2581leverage": 7816, "\u2581monster": 7817, "ster": 7818, "\u2581lean": 7819, "\u2581Audio": 7820, "ek": 7821, "\u2581Drug": 7822, "\u2581Ian": 7823, "\u2581psychology": 7824, "\u2581premises": 7825, "\u2581Mind": 7826, "\u2581needing": 7827, "\u2581encountered": 7828, "play": 7829, "\u2581180": 7830, "\u2581ports": 7831, "\u258176": 7832, "\u2581Universal": 7833, "\u2581bare": 7834, "\u2581honored": 7835, "\u2581Louisiana": 7836, "ship": 7837, "\u2581manually": 7838, "\u2581inquiry": 7839, "\u2581mi": 7840, "\u2581tactics": 7841, "\u2581lane": 7842, "\u2581forums": 7843, "\u258107": 7844, "\u2581launching": 7845, "\u2581describing": 7846, "Well": 7847, "\u2581Lawrence": 7848, "\u2581nutrients": 7849, "\u2581optimization": 7850, "\u2581handles": 7851, "\u2581conjunction": 7852, "\u2581adjustable": 7853, "\u2581hills": 7854, "\u2581bother": 7855, "\u2581queries": 7856, "\u2581deserves": 7857, "\u2581traveled": 7858, "\u2581tomatoes": 7859, "\u2581sanctions": 7860, "\u2581Commissioner": 7861, "\u2581Nation": 7862, "\u2581closure": 7863, "\u2581hiding": 7864, "\u2581prompt": 7865, "\u2581architectural": 7866, "\u2581grabbed": 7867, "\u2581racial": 7868, "\u2581consistency": 7869, "\u2581Mc": 7870, "key": 7871, "\u2581novels": 7872, "\u2581burned": 7873, "\u2581Guard": 7874, "\u2581wages": 7875, "\u2581activists": 7876, "2010": 7877, "\u2581pays": 7878, "\u2581Resume": 7879, "\u2581segments": 7880, "\u2581terror": 7881, "\u2581mysterious": 7882, "\u2581rival": 7883, "\u2581bikes": 7884, "\u2581petition": 7885, "\u2581retreat": 7886, "\u2581preview": 7887, "\u2581Someone": 7888, "\u2581jet": 7889, "\u2581unto": 7890, "\u2581ca": 7891, "\u2581Fortunately": 7892, "\u2581practicing": 7893, "\u2581draws": 7894, "\u2581delayed": 7895, "\u2581Going": 7896, "\u258167": 7897, "\u2581Born": 7898, "\u2581scholars": 7899, "\u2581execute": 7900, "\u2581eco": 7901, "\u2581damn": 7902, "\u2581loyalty": 7903, "\u2581lifted": 7904, "\u2581Cleaning": 7905, "\u2581Douglas": 7906, "\u2581Murray": 7907, "\u2581FDA": 7908, "\u2581Deputy": 7909, "\u2581Ram": 7910, "PM": 7911, "\u2581villages": 7912, "\u2581sunny": 7913, "\u2581independently": 7914, "\u2581Franklin": 7915, "\u2581divine": 7916, "\u2581Summit": 7917, "\u2581kits": 7918, "\u2581Inn": 7919, "\u2581organised": 7920, "\u2581crying": 7921, "\u2581VPN": 7922, "\u2581cyber": 7923, "\u2581Unless": 7924, "\u2581steal": 7925, "\u2581machinery": 7926, "\u2581Connecticut": 7927, "\u2581vegetable": 7928, "\u2581von": 7929, "\u2581desires": 7930, "\u2581Corporate": 7931, "\u2581Engine": 7932, "isation": 7933, "\u2581Barcelona": 7934, "\u2581homeowners": 7935, "\u2581Race": 7936, "\u2581homeless": 7937, "\u2581Mining": 7938, "\u2581shocked": 7939, "\u2581observations": 7940, "\u2581minimize": 7941, "\u2581aesthetic": 7942, "\u2581graduation": 7943, "\u2581safer": 7944, "\u2581costume": 7945, "\u2581profitable": 7946, "\u2581acute": 7947, "stone": 7948, "\u2581sensitivity": 7949, "\u2581existed": 7950, "\u2581warrant": 7951, "\u2581approaching": 7952, "\u2581dairy": 7953, "LY": 7954, "\u2581responsive": 7955, "\u2581Solar": 7956, "ola": 7957, "\u2581bias": 7958, "\u2581indication": 7959, "school": 7960, "\u2581listened": 7961, "\u2581000": 7962, "\u2581chapters": 7963, "\u2581crafted": 7964, "\u2581ate": 7965, "\u2581Seven": 7966, "\u2581bugs": 7967, "\u2581singles": 7968, "\u2581span": 7969, "\u2581construct": 7970, "\u2581Honda": 7971, "\u2581Palestinian": 7972, "\u2581median": 7973, "\u2581triple": 7974, "\u2581donate": 7975, "\u2581introducing": 7976, "\u2581farming": 7977, "\u2581Stewart": 7978, "\u2581fold": 7979, "\u2581asleep": 7980, "\u2581acknowledged": 7981, "driven": 7982, "\u2581circles": 7983, "\u2581proportion": 7984, "\u2581integral": 7985, "\u2581Starting": 7986, "\u2581pension": 7987, "\u2581stamp": 7988, "\u2581desperate": 7989, "\u2581snap": 7990, "\u2581max": 7991, "\u2581statistical": 7992, "\u258109": 7993, "\u2581lit": 7994, "\u2581Awesome": 7995, "\u2581legislative": 7996, "\u2581lenses": 7997, "ring": 7998, "\u2581Larry": 7999, "Why": 8000, "\u2581palm": 8001, "\u2581jumping": 8002, "\u2581Mi": 8003, "\u2581appearances": 8004, "\u2581traders": 8005, "\u2581bat": 8006, "vi": 8007, "\u2581households": 8008, "\u2581theft": 8009, "\u2581oak": 8010, "2011": 8011, "\u2581kicked": 8012, "\u2581Marie": 8013, "67": 8014, "\u2581Leave": 8015, "\u2581globally": 8016, "\u2581jurisdiction": 8017, "\u2581panic": 8018, "\u2581Pack": 8019, "\u2581adjustment": 8020, "\u2581talents": 8021, "\u2581liable": 8022, "\u2581consisting": 8023, "\u2581GOP": 8024, "\u258193": 8025, "\u2581insert": 8026, "\u2581translated": 8027, "\u2581owns": 8028, "\u2581Pink": 8029, "view": 8030, "ance": 8031, "\u2581niche": 8032, "\u2581adapted": 8033, "\u3001": 8034, "\u2581Campbell": 8035, "\u2581reads": 8036, "\u2581Dublin": 8037, "\u2581Left": 8038, "\u2581investigations": 8039, "\u2581throat": 8040, "\u2581den": 8041, "\u2581Beauty": 8042, "\u2581taxi": 8043, "ger": 8044, "\u2581transparency": 8045, "\u2581rolls": 8046, "\u2581arriving": 8047, "\u2581prescribed": 8048, "\u2581molecular": 8049, "\u2581ore": 8050, "\u2581visibility": 8051, "\u2581Ridge": 8052, "\u2581Fed": 8053, "\u2581Former": 8054, "\u2581newer": 8055, "\u2581protests": 8056, "\u2581indicating": 8057, "\u2581SA": 8058, "\u2581monetary": 8059, "\u2581Costa": 8060, "\u2581FC": 8061, "\u2581Ultra": 8062, "\u2581Kindle": 8063, "\u2581snack": 8064, "win": 8065, "\u2581Chamber": 8066, "\u2581pound": 8067, "\u2581therapeutic": 8068, "\u2581Emily": 8069, "\u2581mayor": 8070, "\u2581Karen": 8071, "\u2581Restaurant": 8072, "\u2581Leader": 8073, "\u2581Bi": 8074, "\u2581pork": 8075, "\u2581clay": 8076, "\u2581Trans": 8077, "\u2581react": 8078, "\u2581woods": 8079, "hi": 8080, "\u2581ya": 8081, "\u2581Lots": 8082, "\u2581affair": 8083, "\u2581educate": 8084, "\u2581Alice": 8085, "\u2581Fan": 8086, "ball": 8087, "\u2581convicted": 8088, "\u2581sponsor": 8089, "\u2581Roy": 8090, "\u2581discretion": 8091, "\u2581Madison": 8092, "\u2581varying": 8093, "\u2581ridiculous": 8094, "\u2581quarterback": 8095, "\u2581outline": 8096, "\u2581Manhattan": 8097, "\u2581allies": 8098, "\u2581wheat": 8099, "\u2581orientation": 8100, "\u2581Crystal": 8101, "ang": 8102, "\u2581attraction": 8103, "\u2581prestigious": 8104, "\u2581conferences": 8105, "\u2581annoying": 8106, "\u2581concentrate": 8107, "2000": 8108, "\u2581comparing": 8109, "\u2581fur": 8110, "\u2581synthetic": 8111, "\u2581deadly": 8112, "\u2581admin": 8113, "\u2581tribute": 8114, "\u2581neat": 8115, "\u2581CBS": 8116, "\u2581Jerry": 8117, "\u2581Robinson": 8118, "\u2581legend": 8119, "\u2581amid": 8120, "\u2581CBD": 8121, "\u2581Meet": 8122, "\u2581Trading": 8123, "\u2581Build": 8124, "\u2581Ka": 8125, "\u2581prizes": 8126, "\u258196": 8127, "\u2581Michelle": 8128, "\u2581catching": 8129, "\u2581advances": 8130, "\u2581organizing": 8131, "\u2581Around": 8132, "\u2581unemployment": 8133, "\u2581Environment": 8134, "\u2581laughing": 8135, "\u2581litigation": 8136, "\u2581scenarios": 8137, "\u258188": 8138, "\u2581Die": 8139, "\u2581Amazing": 8140, "\u2581decorative": 8141, "\u2581Valentine": 8142, "\u2581enthusiasm": 8143, "\u2581accordingly": 8144, "\u2581Bachelor": 8145, "\u2581maximize": 8146, "\u2581tastes": 8147, "person": 8148, "\u2581decorated": 8149, "ino": 8150, "\u2581builds": 8151, "\u258104": 8152, "\u2581clouds": 8153, "shirt": 8154, "\u2581Yellow": 8155, "\u2581plumbing": 8156, "\u2581considerably": 8157, "\u2581AD": 8158, "\u2581Otherwise": 8159, "\u2581avoiding": 8160, "\u2581screw": 8161, "\u2581Soon": 8162, "lan": 8163, "\u2581promo": 8164, "\u2581rides": 8165, "\u2581Chrome": 8166, "\u2581Orlando": 8167, "\u2581matched": 8168, "\u2581investigated": 8169, "\u2581Princess": 8170, "\u2581Edge": 8171, "\u2581cycling": 8172, "\u2581shore": 8173, "\u2581Panel": 8174, "\u2581Robin": 8175, "\u2581goodness": 8176, "\u2581sa": 8177, "\u2581organ": 8178, "\u2581trainer": 8179, "\u2581Homes": 8180, "edu": 8181, "\u2581Leadership": 8182, "\u2581alternate": 8183, "cut": 8184, "\u2581basics": 8185, "\u2581regret": 8186, "\u2581nurses": 8187, "\u2581ARE": 8188, "\u2581bankruptcy": 8189, "\u2581specify": 8190, "\u2581lover": 8191, "\u258177": 8192, "\u2581gut": 8193, "\u2581Partners": 8194, "\u2581deleted": 8195, "two": 8196, "\u2581tumor": 8197, "\u2581RAM": 8198, "\u2581counties": 8199, "\u2581consist": 8200, "\u2581Marvel": 8201, "\u2581Madrid": 8202, "\u2581tanks": 8203, "\u2581Must": 8204, "\u2581refreshing": 8205, "\u2581boasts": 8206, "\u2581cluster": 8207, "\u2581combining": 8208, "\u2581motorcycle": 8209, "\u2581riders": 8210, "\u2581Albert": 8211, "66": 8212, "\u2581substantially": 8213, "\u2581Half": 8214, "\u2581Clear": 8215, "\u2581terrorism": 8216, "\u2581static": 8217, "\u2581\u03bc": 8218, "\u2581imposed": 8219, "\u2581steep": 8220, "\u2581democratic": 8221, "\u2581lineup": 8222, "\u2581metres": 8223, "\u2581technicians": 8224, "\u2581floral": 8225, "\u2581assessed": 8226, "ck": 8227, "\u2581strictly": 8228, "\u2581practically": 8229, "\u2581Hell": 8230, "\u2581Clinical": 8231, "\u2581pub": 8232, "\u2581Regardless": 8233, "\u2581brass": 8234, "\u2581Oscar": 8235, "\u2581Events": 8236, "\u2581physicians": 8237, "\u2581cents": 8238, "\u2581distant": 8239, "Yes": 8240, "\u2581herbs": 8241, "\u2581proceeds": 8242, "pro": 8243, "\u2581Safe": 8244, "\u2581drill": 8245, "\u2581favour": 8246, "\u2581dis": 8247, "\u2581Pope": 8248, "\u2581Snow": 8249, "\u2581graduates": 8250, "\u2581topped": 8251, "\u2581chaos": 8252, "\u2581tuned": 8253, "\u2581deficit": 8254, "\u2581finishes": 8255, "\u2581threshold": 8256, "\u2581node": 8257, "\u2581pursuing": 8258, "\u2581meter": 8259, "\u2581sheep": 8260, "\u2581cuisine": 8261, "\u2581snacks": 8262, "\u2581drum": 8263, "\u2581puzzle": 8264, "que": 8265, "\u2581trademark": 8266, "\u2581homemade": 8267, "\u2581Notice": 8268, "\u2581Brad": 8269, "\u2581fortunate": 8270, "\u2581editorial": 8271, "\u2581switching": 8272, "\u2581counting": 8273, "\u2581loyal": 8274, "\u2581sporting": 8275, "\u2581Mumbai": 8276, "\u2581tv": 8277, "\u2581crops": 8278, "\u2581Rio": 8279, "\u2581pasta": 8280, "\u2581Comments": 8281, "\u2581Ring": 8282, "\u2581Emergency": 8283, "\u2581merchandise": 8284, "ker": 8285, "\u2581offset": 8286, "\u2581Cheap": 8287, "\u2581GA": 8288, "\u2581structured": 8289, "\u2581Congratulations": 8290, "\u2581firmly": 8291, "\u2581Similarly": 8292, "\u2581SD": 8293, "po": 8294, "\u2581pressed": 8295, "\u2581Bag": 8296, "\u2581Dakota": 8297, "\u2581steering": 8298, "\u2581punishment": 8299, "\u2581vegan": 8300, "\u2581dentist": 8301, "ik": 8302, "\u2581Mitchell": 8303, "\u00b0": 8304, "\u2581drawings": 8305, "\u2581economics": 8306, "\u2581Olympics": 8307, "\u2581dessert": 8308, "88": 8309, "\u2581achievements": 8310, "\u2581Carl": 8311, "\u2581compounds": 8312, "62": 8313, "\u2581VR": 8314, "\u2581witnessed": 8315, "\u2581nominated": 8316, "\u2581unclear": 8317, "\u2581Wind": 8318, "\u2581Secret": 8319, "\u2581heroes": 8320, "\u2581WA": 8321, "\u2581urged": 8322, "ung": 8323, "\u2581Democrat": 8324, "\u2010": 8325, "\u2581Bathroom": 8326, "\u2581BMW": 8327, "\u2581outlook": 8328, "\u2581ONE": 8329, "link": 8330, "\u2581encourages": 8331, "under": 8332, "\u2581Amendment": 8333, "\u2581runner": 8334, "\u2581browsing": 8335, "\u2581connectivity": 8336, "\u2581Basic": 8337, "\u2581projected": 8338, "\u2581warehouse": 8339, "\u2581Housing": 8340, "\u2581threatening": 8341, "\u2581sword": 8342, "\u2581Applications": 8343, "\u2581Fred": 8344, "\u2581Woman": 8345, "\u2581partnerships": 8346, "\u2581roster": 8347, "\u2581blessing": 8348, "\u2581lung": 8349, "\u2581releasing": 8350, "\u2581mesh": 8351, "\u2581renovation": 8352, "iness": 8353, "\u2581Sheriff": 8354, "\u2581Collins": 8355, "\u2581Billy": 8356, "\u2581SQL": 8357, "\u2581mat": 8358, "\u2581Oracle": 8359, "\u2581portrait": 8360, "\u2581influences": 8361, "72": 8362, "\u2581illustrated": 8363, "\u2581rod": 8364, "ml": 8365, "\u2581inflammation": 8366, "\u2581exams": 8367, "Voter": 8368, "\u2581buses": 8369, "\u2581Mon": 8370, "\u2581arrives": 8371, "\u2581urge": 8372, "\u2581revised": 8373, "aka": 8374, "list": 8375, "\u2581Plans": 8376, "\u2581deployed": 8377, "\u2581ingredient": 8378, "\u2581adverse": 8379, "\u2581Lead": 8380, "\u2581weekends": 8381, "\u2581Survey": 8382, "\u2581deployment": 8383, "\u2581grandmother": 8384, "\u2581probability": 8385, "\u2581documented": 8386, "\u2581knock": 8387, "\u2581responding": 8388, "\u2581Bedroom": 8389, "\u2581coalition": 8390, "CO": 8391, "\u25811983": 8392, "\u2581manages": 8393, "\u2581Value": 8394, "\u2581160": 8395, "\u2581inclusive": 8396, "\u2581starter": 8397, "\u2581analyzed": 8398, "\u2581Marshall": 8399, "\u2581newspapers": 8400, "\u2581Military": 8401, "\u2581surroundings": 8402, "\u2581fundraising": 8403, "\u25811979": 8404, "\u2581cement": 8405, "\u2581forcing": 8406, "\u2581dominated": 8407, "\u258169": 8408, "\u2581pills": 8409, "\u2581coating": 8410, "\u2581injection": 8411, "\u2581Bishop": 8412, "\u2581administrator": 8413, "\u2581ethics": 8414, "\u2581EP": 8415, "\u2581Dental": 8416, "\u2581Apparently": 8417, "\u2581founding": 8418, "\u2581sheer": 8419, "\u2581holders": 8420, "\u2581cooler": 8421, "\u2581treasure": 8422, "ze": 8423, "AM": 8424, "\u2581stadium": 8425, "\u2581evaluated": 8426, "\u2581Keith": 8427, "\u2581Yu": 8428, "\u2581rotation": 8429, "\u2581Communication": 8430, "mon": 8431, "\u2581Innovation": 8432, "\u258178": 8433, "\u2581lightly": 8434, "\u2581Address": 8435, "\u2581customize": 8436, "\u2581lid": 8437, "\u2581flu": 8438, "\u2581Reuters": 8439, "\u2581creature": 8440, "je": 8441, "\u2581Swedish": 8442, "\u2581remarks": 8443, "\u2581castle": 8444, "\u2581Weight": 8445, "\u2581generator": 8446, "\u2581Process": 8447, "\u2581positioned": 8448, "ria": 8449, "\u2581diesel": 8450, "\u2581keywords": 8451, "\u2581complications": 8452, "\u2581Treatment": 8453, "98": 8454, "\u2581undergraduate": 8455, "\u2581Delta": 8456, "\u2581flew": 8457, "\u2581duo": 8458, "\u2581tobacco": 8459, "\u2581punch": 8460, "\u2581Transportation": 8461, "\u2581Close": 8462, "\u2581Kent": 8463, "\u2581Samuel": 8464, "\u2581reviewing": 8465, "\u2581commands": 8466, "\u2581Floor": 8467, "\u2581Directors": 8468, "\u2581mud": 8469, "\u2581innings": 8470, "\u2581NBC": 8471, "\u2581strengths": 8472, "\u2581Zone": 8473, "century": 8474, "\u2581reservation": 8475, "\u2581hyper": 8476, "\u2581Christianity": 8477, "\u2581grasp": 8478, "\u2581elementary": 8479, "\u2581Adobe": 8480, "\u25811982": 8481, "\u2581Birthday": 8482, "\u2581calculate": 8483, "\u2581assignments": 8484, "\u2581zones": 8485, "\u25811930": 8486, "\u2581Ready": 8487, "\u2581railway": 8488, "\u2581Visual": 8489, "\u2581mis": 8490, "\u2581notified": 8491, "\u2581defendant": 8492, "\u2581altogether": 8493, "\u2581spine": 8494, "ology": 8495, "\u2581ugly": 8496, "\u2581Masters": 8497, "\u2581Pick": 8498, "\u2581Theory": 8499, "\u2581lawmakers": 8500, "\u2581durability": 8501, "\u2581consequence": 8502, "\u2581stating": 8503, "\u2581Includes": 8504, "\u2581trace": 8505, "\u2581schemes": 8506, "\u2581advisor": 8507, "\u2581intensive": 8508, "\u2581frustration": 8509, "\u2581Users": 8510, "\u2581Ver": 8511, "\u2581centres": 8512, "\u2581Cruz": 8513, "\u2581spreading": 8514, "\u2581abundance": 8515, "\u2581confusing": 8516, "\u2581securities": 8517, "\u2581modeling": 8518, "\u2581Boys": 8519, "\u2581camps": 8520, "\u2581smoothly": 8521, "\u2581tweet": 8522, "read": 8523, "\u2581Questions": 8524, "\u2581minerals": 8525, "\u2581withdrawal": 8526, "\u2581planted": 8527, "\u2581printable": 8528, "\u2581Kenya": 8529, "\u2581Jun": 8530, "\u2581breathe": 8531, "\u2581surveys": 8532, "face": 8533, "\u2581Primary": 8534, "\u2581130": 8535, "\u2581spirits": 8536, "\u2581distinction": 8537, "\u2581hassle": 8538, "\u2581scientist": 8539, "63": 8540, "\u2581poly": 8541, "\u2581tunnel": 8542, "\u2581belongs": 8543, "\u2581midnight": 8544, "ho": 8545, "\u2581Nor": 8546, "\u25811920": 8547, "\u2581Related": 8548, "\u2581avoided": 8549, "\u2581pole": 8550, "\u2581wealthy": 8551, "where": 8552, "\u2581Linda": 8553, "\u00c3": 8554, "\u2581pending": 8555, "mann": 8556, "\u2581Philip": 8557, "\u2581ST": 8558, "\u2581firing": 8559, "\u2581elevated": 8560, "\u2581distribute": 8561, "\u2581acids": 8562, "\u2581cope": 8563, "\u2581lifting": 8564, "\u2581inevitable": 8565, "\u2581quietly": 8566, "\u2581realise": 8567, "\u2581wallet": 8568, "\u2581profound": 8569, "\u2581tomato": 8570, "\u2581Sand": 8571, "\u2581frustrated": 8572, "\u2581constitutional": 8573, "\u2581genuinely": 8574, "\u2581Registration": 8575, "\u2581cargo": 8576, "\u2581sweat": 8577, "\u2581lacking": 8578, "\u2581Emma": 8579, "\u2581font": 8580, "\u2581shirts": 8581, "68": 8582, "ette": 8583, "rate": 8584, "\u2581practitioners": 8585, "\u2581appointments": 8586, "\u2581logged": 8587, "\u2581Active": 8588, "\u2581Tyler": 8589, "\u2581dividend": 8590, "\u2581onion": 8591, "\u2581behaviors": 8592, "\u2581Nike": 8593, "\u2581adjustments": 8594, "\u2581hi": 8595, "\u2581laughed": 8596, "\u2581seniors": 8597, "\u2581oz": 8598, "\u2581deputy": 8599, "Pro": 8600, "\u2581crisp": 8601, "\u2581recognised": 8602, "\u2581conflicts": 8603, "\u2581theoretical": 8604, "\u2581ecosystem": 8605, "\u2581Options": 8606, "\u2581necessity": 8607, "\u2581activation": 8608, "\u2581Stanley": 8609, "\u2581accent": 8610, "\u2581baked": 8611, "sky": 8612, "\u2581modes": 8613, "\u2581Lu": 8614, "\u2581140": 8615, "\u2581Outdoor": 8616, "\u2581dismissed": 8617, "\u2581Agent": 8618, "\u2581influential": 8619, "\u2581saves": 8620, "\u2581Apply": 8621, "\u2581flowing": 8622, "cha": 8623, "\u2581Morning": 8624, "\u2581knees": 8625, "\u2581vol": 8626, "\u2581jam": 8627, "\u2581SE": 8628, "\u2581Template": 8629, "\u2581Guy": 8630, "\u2581attendees": 8631, "\u2581crap": 8632, "\u2581brave": 8633, "\u2581consuming": 8634, "\u2581occurring": 8635, "\u2581Return": 8636, "\u2581Kyle": 8637, "\u2581mounting": 8638, "screen": 8639, "\u2581celebrity": 8640, "\u2581roller": 8641, "\u2581washed": 8642, "\u2581Perry": 8643, "\u2581fifty": 8644, "\u2581athletic": 8645, "\u2581lecture": 8646, "\u2581modest": 8647, "\u2581travels": 8648, "\u2581Target": 8649, "\u2581equality": 8650, "\u2581rewarding": 8651, "ani": 8652, "\u2581temporarily": 8653, "\u2581disappeared": 8654, "\u2581blanket": 8655, "\u2581Economics": 8656, "ron": 8657, "\u2581skirt": 8658, "\u2581gluten": 8659, "\u2581bears": 8660, "\u2581Jake": 8661, "\u2581pools": 8662, "\u2581Murphy": 8663, "\u2581noon": 8664, "\u2581Truth": 8665, "Go": 8666, "\u2581cellular": 8667, "\u2581Birmingham": 8668, "\u2581Jessica": 8669, "\u2581trap": 8670, "\u2581sells": 8671, "\u2581associations": 8672, "ci": 8673, "\u2581touching": 8674, "\u2581Manual": 8675, "\u2581cousin": 8676, "\u2581likewise": 8677, "\u2581Ward": 8678, "\u2581amazed": 8679, "\u258174": 8680, "900": 8681, "\u2581defending": 8682, "\u2581organizational": 8683, "\u2581sometime": 8684, "\u2581Fe": 8685, "\u2581upgraded": 8686, "\u2581Bird": 8687, "\u2581Johnny": 8688, "stop": 8689, "port": 8690, "\u2581wholesale": 8691, "\u2581musician": 8692, "\u2581\u00ab": 8693, "An": 8694, "\u2581st": 8695, "\u2581Buffalo": 8696, "\u2581Terry": 8697, "\u2581silk": 8698, "\u2581Forex": 8699, "\u2581RV": 8700, "\u2581waist": 8701, "\u2581Penn": 8702, "\u2581warmth": 8703, "\u2581probe": 8704, "Don": 8705, "\u2581arena": 8706, "ov": 8707, "\u2581charter": 8708, "\u2581diagnostic": 8709, "\u2581happily": 8710, "\u2581Bus": 8711, "\u2581solved": 8712, "\u2581chains": 8713, "best": 8714, "\u2581canada": 8715, "\u2581architect": 8716, "\u2581towel": 8717, "\u2581Apart": 8718, "\u2581ranges": 8719, "\u2581characterized": 8720, "\u2581terrain": 8721, "\u2581earliest": 8722, "ive": 8723, "\u2581horizontal": 8724, "\u2581viable": 8725, "\u2581biology": 8726, "\u2581cave": 8727, "\u2581Bond": 8728, "\u2581pupils": 8729, "\u2581breed": 8730, "\u2581smiled": 8731, "\u2581Cameron": 8732, "\u2581animated": 8733, "\u2581\u00b0": 8734, "\u2581Nancy": 8735, "\u2581acted": 8736, "\u2581occupation": 8737, "\u2581RE": 8738, "\u2581Continue": 8739, "\u2581Cabinet": 8740, "\u2581complement": 8741, "\u2581Wolf": 8742, "\u2581sq": 8743, "\u2581bubble": 8744, "season": 8745, "\u2581streams": 8746, "\u2581creator": 8747, "\u2581Sep": 8748, "\u2581disagree": 8749, "\u2581heater": 8750, "\u2581blocking": 8751, "\u2581Voice": 8752, "pe": 8753, "\u2581sacred": 8754, "\u2581bitter": 8755, "\u2581cheapest": 8756, "\u2581Excel": 8757, "\u2581watches": 8758, "dis": 8759, "\u2581meantime": 8760, "\u2581hop": 8761, "\u2581cocktail": 8762, "\u258171": 8763, "\u2581MI": 8764, "\u2581drunk": 8765, "\u258106": 8766, "\u2581preliminary": 8767, "\u2581substances": 8768, "\u2581Margaret": 8769, "\u2581ambitious": 8770, "\u2581Soft": 8771, "\u2581Ca": 8772, "\u2581potato": 8773, "\u2581slice": 8774, "\u2581naked": 8775, "\u2581gauge": 8776, "\u2581participant": 8777, "\u2581assuming": 8778, "\u2581verse": 8779, "\u2581parameter": 8780, "\u2581cinema": 8781, "\u2581slower": 8782, "\u2581unwanted": 8783, "\u2581analyses": 8784, "\u2581algorithms": 8785, "\u2581searches": 8786, "\u2581bases": 8787, "\u2581Rent": 8788, "\u2581hack": 8789, "\u2581Weather": 8790, "\u2581poorly": 8791, "\u2581Official": 8792, "\u2581mapping": 8793, "\u2581Pictures": 8794, "\u2581farms": 8795, "have": 8796, "\u2581Consumer": 8797, "\u2581tendency": 8798, "\u2581Production": 8799, "\u2581Eventually": 8800, "\u2581namely": 8801, "\u2581Greater": 8802, "after": 8803, "\u2581viral": 8804, "part": 8805, "\u2581circulation": 8806, "\u2581shy": 8807, "\u2581exotic": 8808, "\u2581Mediterranean": 8809, "\u2581recreational": 8810, "\u2581frustrating": 8811, "\u2581packs": 8812, "\u2581vanilla": 8813, "\u2581demonstrates": 8814, "77": 8815, "\u2581retailer": 8816, "\u2581GB": 8817, "\u2581MORE": 8818, "ai": 8819, "\u2581configured": 8820, "\u2581permanently": 8821, "jo": 8822, "\u2581Marc": 8823, "\u2581uploaded": 8824, "\u2581onions": 8825, "\u2581discusses": 8826, "\u2581Glen": 8827, "\u2581Probably": 8828, "\u2581lining": 8829, "\u2581touches": 8830, "\u2581paired": 8831, "\u2581investigators": 8832, "\u2581inviting": 8833, "\u2581Face": 8834, "\u2581Han": 8835, "\u2581Montreal": 8836, "shaped": 8837, "\u2581lbs": 8838, "\u2581harvest": 8839, "\u2581medicines": 8840, "\u2581tri": 8841, "\u2581Connect": 8842, "ig": 8843, "\u2581tray": 8844, "\u2581deer": 8845, "\u2581sealed": 8846, "\u2581op": 8847, "61": 8848, "\u2581hint": 8849, "\u2581Corps": 8850, "\u2581sends": 8851, "\u2581consumed": 8852, "\u2581commentary": 8853, "king": 8854, "\u2581delays": 8855, "\u2581glue": 8856, "\u2581compassion": 8857, "store": 8858, "\u2581Associate": 8859, "\u2581ceramic": 8860, "\u2581Risk": 8861, "\u2581MY": 8862, "\u2581Therapy": 8863, "\u2581missions": 8864, "\u2581understands": 8865, "\u2581woke": 8866, "\u2581extending": 8867, "\u2581Climate": 8868, "\u2581approve": 8869, "\u2581kidney": 8870, "\u2581Pen": 8871, "\u2581Lower": 8872, "\u2581bucket": 8873, "\u2581blogger": 8874, "\u2581progression": 8875, "\u2581sentences": 8876, "\u258182": 8877, "\u2581lol": 8878, "\u2581Vision": 8879, "At": 8880, "\u2581forests": 8881, "\u2581Putin": 8882, "\u2581Extra": 8883, "\u2581activated": 8884, "\u2581antique": 8885, "\u2581graph": 8886, "\u2581runners": 8887, "\u2581shareholders": 8888, "\u2581decides": 8889, "\u2581counseling": 8890, "\u2581Sanders": 8891, "\u2581relaxation": 8892, "\u2581expects": 8893, "97": 8894, "\u2581Rental": 8895, "gate": 8896, "\u2581Morris": 8897, "also": 8898, "\u2581descriptions": 8899, "\u2581Political": 8900, "\u258173": 8901, "real": 8902, "\u2581amendment": 8903, "\u2581Norway": 8904, "2009": 8905, "\u2581Block": 8906, "\u2581Track": 8907, "\u2581simulation": 8908, "\u2581burst": 8909, "most": 8910, "\u2581Volume": 8911, "\u2581Rules": 8912, "\u2581switched": 8913, "\u2581submitting": 8914, "\u2581commented": 8915, "MP": 8916, "\u2581violations": 8917, "\u258189": 8918, "ver": 8919, "\u2581clearance": 8920, "\u2581interviewed": 8921, "\u2581Taiwan": 8922, "\u2581satisfying": 8923, "\u2581beam": 8924, "\u25811981": 8925, "ru": 8926, "\u2581inexpensive": 8927, "\u2581Tan": 8928, "\u2581penalties": 8929, "\u2581harassment": 8930, "\u2581bronze": 8931, "\u2581pursuit": 8932, "2008": 8933, "\u2581attach": 8934, "very": 8935, "\u2581DE": 8936, "\u2581grill": 8937, "\u2581rope": 8938, "\u2581Reviews": 8939, "\u2581discharge": 8940, "yes": 8941, "\u2581casting": 8942, "\u2581Liberty": 8943, "\u2581updating": 8944, "\u2581Xbox": 8945, "\u2581dip": 8946, "\u2581er": 8947, "\u2581tragedy": 8948, "\u2581terrific": 8949, "\u2581Polish": 8950, "\u2581decoration": 8951, "\u2581shifting": 8952, "\u2581Si": 8953, "\u2581Jamie": 8954, "\u2581Lo": 8955, "\u2581advocates": 8956, "cc": 8957, "\u2581complain": 8958, "\u2581eaten": 8959, "\u2581weakness": 8960, "\u2581booth": 8961, "\u2581spam": 8962, "\u2581Ted": 8963, "\u2581Dining": 8964, "\u2581Knight": 8965, "\u2581Electronic": 8966, "\u2581explored": 8967, "\u2581wool": 8968, "\u2581characteristic": 8969, "\u2581professionally": 8970, "96": 8971, "\u258192": 8972, "\u2581conviction": 8973, "\u2581perspectives": 8974, "\u2581Rule": 8975, "\u2581crude": 8976, "\u2581diving": 8977, "\u2581Generally": 8978, "Con": 8979, "\u2581Same": 8980, "br": 8981, "name": 8982, "\u2581tricky": 8983, "oriented": 8984, "\u258105": 8985, "\u2581Benjamin": 8986, "\u2581demonstration": 8987, "ID": 8988, "\u258184": 8989, "plus": 8990, "\u258197": 8991, "\u2581Bluetooth": 8992, "\u2581performs": 8993, "\u2581meta": 8994, "\u2581travelers": 8995, "\u2581fried": 8996, "\u2581vector": 8997, "\u2581trades": 8998, "\u2581beaten": 8999, "\u2581ET": 9000, "\u2581Jazz": 9001, "\u2581Brothers": 9002, "ane": 9003, "\u2581fraction": 9004, "\u2581curtains": 9005, "\u2581Neil": 9006, "\u2581Associates": 9007, "\u2581prohibited": 9008, "\u2581dealers": 9009, "\u2581sellers": 9010, "\u2581Log": 9011, "\u2581Looks": 9012, "\u2581assure": 9013, "\u2581Certificate": 9014, "\u2581mate": 9015, "\u2581lengthy": 9016, "\u2581wounded": 9017, "\u2581Operations": 9018, "\u2581Iranian": 9019, "\u2581Alberta": 9020, "\u2581wars": 9021, "\u2581laying": 9022, "\u2581anonymous": 9023, "\u2581witnesses": 9024, "\u2581AL": 9025, "\u2581Champions": 9026, "\u2581Walter": 9027, "\u2581mentor": 9028, "\u2581hospitality": 9029, "\u2581Jeremy": 9030, "\u2581Designed": 9031, "\u2581reset": 9032, "79": 9033, "\u2581midst": 9034, "cost": 9035, "\u2581belly": 9036, "\u2581supervision": 9037, "\u2581Impact": 9038, "\u2581curtain": 9039, "\u2581brake": 9040, "\u2581sustain": 9041, "\u2581applicant": 9042, "\u2581`": 9043, "\u2581cattle": 9044, "\u2581clue": 9045, "\u2581controversy": 9046, "\u2581enrolled": 9047, "\u2581UV": 9048, "\u2581te": 9049, "\u2581prompted": 9050, "\u2581imagined": 9051, "ura": 9052, "\u2581Evans": 9053, "\u2581Waste": 9054, "\u2581Prof": 9055, "\u2581fever": 9056, "\u2581gospel": 9057, "\u2581incorrect": 9058, "\u2581Broadway": 9059, "\u2581enterprises": 9060, "\u2581Carol": 9061, "\u2581bathrooms": 9062, "han": 9063, "\u2581Faith": 9064, "\u2581nails": 9065, "\u2581heels": 9066, "\u2581eternal": 9067, "\u2581Mad": 9068, "\u2581Upper": 9069, "\u2581Stage": 9070, "dy": 9071, "\u2581rehabilitation": 9072, "\u2581Notes": 9073, "\u2581united": 9074, "\u2581scent": 9075, "\u2581socks": 9076, "\u2581Belgium": 9077, "\u2581Published": 9078, "\u2581mentally": 9079, "\u2581Barry": 9080, "\u2581kiss": 9081, "\u2581leak": 9082, "\u2581wardrobe": 9083, "\u2581Gun": 9084, "\u2581attacking": 9085, "\u2581porch": 9086, "\u2581maintains": 9087, "\u2581Physical": 9088, "\u2581blockchain": 9089, "\u2581Uber": 9090, "\u2581indicators": 9091, "\u2581Rice": 9092, "\u2581rhythm": 9093, "\u2581deposits": 9094, "\u2581fortune": 9095, "\u2581Pool": 9096, "\u2581therapist": 9097, "five": 9098, "\u2581raises": 9099, "\u2581CPU": 9100, "\u2581pharmaceutical": 9101, "\u2581methodology": 9102, "\u2581Arkansas": 9103, "\u2581retention": 9104, "dale": 9105, "\u2581carriers": 9106, "\u2581justify": 9107, "\u2581Range": 9108, "\u2581cancelled": 9109, "\u2581Les": 9110, "\u2581obstacles": 9111, "\u2581mp": 9112, "\u2581fires": 9113, "\u2581Screen": 9114, "\u2581financially": 9115, "\u2581sewing": 9116, "bi": 9117, "\u2581lazy": 9118, "\u2581tasting": 9119, "\u2581clips": 9120, "\u2581Eagle": 9121, "\u2581dial": 9122, "\u2581Transport": 9123, "\u2581attachment": 9124, "\u2581circular": 9125, "\u2581backgrounds": 9126, "\u2581fatigue": 9127, "\u2581Lodge": 9128, "\u2581worries": 9129, "\u2581barn": 9130, "\u2581Knowledge": 9131, "\u2581Puerto": 9132, "\u2581Tips": 9133, "\u2581grief": 9134, "\u2581Circuit": 9135, "\u2581composite": 9136, "\u2581Brain": 9137, "\u2581cozy": 9138, "\u2581withdraw": 9139, "\u2581sticks": 9140, "\u2581faithful": 9141, "\u25811978": 9142, "\u2581mechanics": 9143, "\u2581pipes": 9144, "\u2581microwave": 9145, "\u2581UP": 9146, "\u2581bride": 9147, "\u2581Woods": 9148, "\u2581extends": 9149, "first": 9150, "\u2581Oliver": 9151, "\u2581Juan": 9152, "\u2581Su": 9153, "\u2581lesser": 9154, "\u25811940": 9155, "71": 9156, "pp": 9157, "\u2581tissues": 9158, "\u2581gaps": 9159, "\u2581Materials": 9160, "\u2581translate": 9161, "\u2581Storm": 9162, "when": 9163, "\u2581remedy": 9164, "\u2581collar": 9165, "\u2581locks": 9166, "\u2581Jobs": 9167, "\u2581archive": 9168, "\u2581Cole": 9169, "\u2581grave": 9170, "La": 9171, "\u2581Canon": 9172, "\u2581Client": 9173, "\u2581Whenever": 9174, "\u2581Apr": 9175, "\u2581pillow": 9176, "\u2581Moving": 9177, "\u2581urgent": 9178, "OR": 9179, "\u2581automobile": 9180, "\u2581Luckily": 9181, "\u2581iTunes": 9182, "\u2581columns": 9183, "\u2581Sa": 9184, "minded": 9185, "\u2581priest": 9186, "\u2581Photos": 9187, "\u2581Par": 9188, "ita": 9189, "\u2581smartphones": 9190, "\u2581invalid": 9191, "\u2581glance": 9192, "\u258186": 9193, "\u2581outlined": 9194, "\u2581thickness": 9195, "\u2581Nashville": 9196, "\u2581Soul": 9197, "oh": 9198, "\u2581ballot": 9199, "\u2581Indians": 9200, "\u2581Yesterday": 9201, "\u2581divide": 9202, "\u2581t\u00eb": 9203, "\u258187": 9204, "\u2581Transfer": 9205, "\u2581Privacy": 9206, "\u2581trapped": 9207, "NET": 9208, "\u2581classification": 9209, "\u2581portions": 9210, "\u2581sliding": 9211, "76": 9212, "\u2581Brazilian": 9213, "\u2581Mall": 9214, "\u2581emotionally": 9215, "\u2581Stars": 9216, "\u2581Victorian": 9217, "\u2581Joint": 9218, "\u2581dump": 9219, "\u2581males": 9220, "\u2581demanded": 9221, "\u2581Features": 9222, "\u2581advocacy": 9223, "\u2581Virtual": 9224, "\u2581nevertheless": 9225, "\u2581unlock": 9226, "\u2581bake": 9227, "\u2581revealing": 9228, "\u2581Sara": 9229, "\u2581Bath": 9230, "\u2581lending": 9231, "\u2581Driver": 9232, "\u2581attribute": 9233, "\u2581realm": 9234, "\u2581formerly": 9235, "\u2581Theater": 9236, "\u2581simpler": 9237, "\u2581Ah": 9238, "\u2581spite": 9239, "\u2581Gov": 9240, "\u2581guilt": 9241, "\u2581soldier": 9242, "\u2581coding": 9243, "\u2581Delivery": 9244, "\u2581SP": 9245, "\u2581youngest": 9246, "\u2581Opera": 9247, "\u2581Barack": 9248, "With": 9249, "\u2581Hart": 9250, "\u2581improves": 9251, "\u2581excel": 9252, "\u2581prevents": 9253, "\u2581fabrics": 9254, "\u2581Columbus": 9255, "zo": 9256, "yo": 9257, "\u2581fame": 9258, "\u2581NOW": 9259, "\u2581Residential": 9260, "\u2581grandfather": 9261, "\u2581Argentina": 9262, "\u2581leisure": 9263, "\u2581arising": 9264, "\u2581Exam": 9265, "\u2581teenager": 9266, "\u2581mall": 9267, "\u2581thereof": 9268, "ising": 9269, "\u2581finances": 9270, "ara": 9271, "\u2581initiated": 9272, "half": 9273, "\u2581Baptist": 9274, "\u2581competent": 9275, "\u2581upgrades": 9276, "\u2581licensing": 9277, "\u2581complimentary": 9278, "\u2581Budget": 9279, "\u2581decorations": 9280, "\u2581FM": 9281, "\u2581Choice": 9282, "\u2581pros": 9283, "\u2581mod": 9284, "\u2581sounded": 9285, "\u2581desirable": 9286, "\u2581eighth": 9287, "buy": 9288, "\u2581radar": 9289, "\u2581specializes": 9290, "\u2581Gardens": 9291, "\u2581overhead": 9292, "\u2581Arena": 9293, "\u2581Danny": 9294, "\u2581regulated": 9295, "\u2581Fig": 9296, "\u2581Alpha": 9297, "\u2581Ar": 9298, "\u2581transfers": 9299, "\u2581roofing": 9300, "\u7684": 9301, "\u2581alien": 9302, "order": 9303, "\u2581emerge": 9304, "\u2581rug": 9305, "\u2581Edinburgh": 9306, "\u2581guards": 9307, "\u2581Coming": 9308, "\u2581noting": 9309, "\u2581kinda": 9310, "\u2581rentals": 9311, "\u2581stressful": 9312, "master": 9313, "\u2581Queensland": 9314, "\u2581tuition": 9315, "\u2581Parents": 9316, "\u2581intentions": 9317, "\u2581Mt": 9318, "core": 9319, "\u2581declare": 9320, "\u2581combinations": 9321, "\u2581Material": 9322, "\u2581Gene": 9323, "\u2581OH": 9324, "\u2581disclosed": 9325, "\u2581conclude": 9326, "\u2581jar": 9327, "ula": 9328, "\u2581fatal": 9329, "\u2581Chicken": 9330, "\u2581cycles": 9331, "\u2581Higher": 9332, "\u2581banner": 9333, "\u2581fifteen": 9334, "yl": 9335, "\u2581disclose": 9336, "\u2581compiled": 9337, "\u2581quicker": 9338, "\u2581Different": 9339, "\u2581sponsors": 9340, "\u2581Mason": 9341, "\u2581neighborhoods": 9342, "\u2581Route": 9343, "\u2581Listen": 9344, "\u2581Com": 9345, "\u2581Factory": 9346, "\u258194": 9347, "\u2581Leather": 9348, "\u2581sciences": 9349, "\u2581breakdown": 9350, "\u2581Todd": 9351, "\u2581Discussion": 9352, "\u2581mph": 9353, "\u2581MB": 9354, "\u2581shifts": 9355, "\u2581Villa": 9356, "\u2581Neither": 9357, "\u2581bullet": 9358, "\u2581lobby": 9359, "Co": 9360, "\u2581Po": 9361, "\u2581festivals": 9362, "\u2581connects": 9363, "\u2581promotes": 9364, "\u2581Strong": 9365, "\u2581questioned": 9366, "\u2581farmer": 9367, "\u2581Tools": 9368, "\u2581refrigerator": 9369, "\u25811975": 9370, "\u25811976": 9371, "\u2581explores": 9372, "\u2581ne": 9373, "\u2581Sounds": 9374, "\u2581marble": 9375, "\u2581comprised": 9376, "\u2581125": 9377, "\u2581alignment": 9378, "\u2581Mario": 9379, "\u2581parliament": 9380, "ated": 9381, "\u2581Version": 9382,
[...]
